<unk>	0
<0x00>	0
<0x01>	0
<0x02>	0
<0x03>	0
<0x04>	0
<0x05>	0
<0x06>	0
<0x07>	0
<0x08>	0
<0x09>	0
<0x0A>	0
<0x0B>	0
<0x0C>	0
<0x0D>	0
<0x0E>	0
<0x0F>	0
<0x10>	0
<0x11>	0
<0x12>	0
<0x13>	0
<0x14>	0
<0x15>	0
<0x16>	0
<0x17>	0
<0x18>	0
<0x19>	0
<0x1A>	0
<0x1B>	0
<0x1C>	0
<0x1D>	0
<0x1E>	0
<0x1F>	0
<0x20>	0
<0x21>	0
<0x22>	0
<0x23>	0
<0x24>	0
<0x25>	0
<0x26>	0
<0x27>	0
<0x28>	0
<0x29>	0
<0x2A>	0
<0x2B>	0
<0x2C>	0
<0x2D>	0
<0x2E>	0
<0x2F>	0
<0x30>	0
<0x31>	0
<0x32>	0
<0x33>	0
<0x34>	0
<0x35>	0
<0x36>	0
<0x37>	0
<0x38>	0
<0x39>	0
<0x3A>	0
<0x3B>	0
<0x3C>	0
<0x3D>	0
<0x3E>	0
<0x3F>	0
<0x40>	0
<0x41>	0
<0x42>	0
<0x43>	0
<0x44>	0
<0x45>	0
<0x46>	0
<0x47>	0
<0x48>	0
<0x49>	0
<0x4A>	0
<0x4B>	0
<0x4C>	0
<0x4D>	0
<0x4E>	0
<0x4F>	0
<0x50>	0
<0x51>	0
<0x52>	0
<0x53>	0
<0x54>	0
<0x55>	0
<0x56>	0
<0x57>	0
<0x58>	0
<0x59>	0
<0x5A>	0
<0x5B>	0
<0x5C>	0
<0x5D>	0
<0x5E>	0
<0x5F>	0
<0x60>	0
<0x61>	0
<0x62>	0
<0x63>	0
<0x64>	0
<0x65>	0
<0x66>	0
<0x67>	0
<0x68>	0
<0x69>	0
<0x6A>	0
<0x6B>	0
<0x6C>	0
<0x6D>	0
<0x6E>	0
<0x6F>	0
<0x70>	0
<0x71>	0
<0x72>	0
<0x73>	0
<0x74>	0
<0x75>	0
<0x76>	0
<0x77>	0
<0x78>	0
<0x79>	0
<0x7A>	0
<0x7B>	0
<0x7C>	0
<0x7D>	0
<0x7E>	0
<0x7F>	0
<0x80>	0
<0x81>	0
<0x82>	0
<0x83>	0
<0x84>	0
<0x85>	0
<0x86>	0
<0x87>	0
<0x88>	0
<0x89>	0
<0x8A>	0
<0x8B>	0
<0x8C>	0
<0x8D>	0
<0x8E>	0
<0x8F>	0
<0x90>	0
<0x91>	0
<0x92>	0
<0x93>	0
<0x94>	0
<0x95>	0
<0x96>	0
<0x97>	0
<0x98>	0
<0x99>	0
<0x9A>	0
<0x9B>	0
<0x9C>	0
<0x9D>	0
<0x9E>	0
<0x9F>	0
<0xA0>	0
<0xA1>	0
<0xA2>	0
<0xA3>	0
<0xA4>	0
<0xA5>	0
<0xA6>	0
<0xA7>	0
<0xA8>	0
<0xA9>	0
<0xAA>	0
<0xAB>	0
<0xAC>	0
<0xAD>	0
<0xAE>	0
<0xAF>	0
<0xB0>	0
<0xB1>	0
<0xB2>	0
<0xB3>	0
<0xB4>	0
<0xB5>	0
<0xB6>	0
<0xB7>	0
<0xB8>	0
<0xB9>	0
<0xBA>	0
<0xBB>	0
<0xBC>	0
<0xBD>	0
<0xBE>	0
<0xBF>	0
<0xC0>	0
<0xC1>	0
<0xC2>	0
<0xC3>	0
<0xC4>	0
<0xC5>	0
<0xC6>	0
<0xC7>	0
<0xC8>	0
<0xC9>	0
<0xCA>	0
<0xCB>	0
<0xCC>	0
<0xCD>	0
<0xCE>	0
<0xCF>	0
<0xD0>	0
<0xD1>	0
<0xD2>	0
<0xD3>	0
<0xD4>	0
<0xD5>	0
<0xD6>	0
<0xD7>	0
<0xD8>	0
<0xD9>	0
<0xDA>	0
<0xDB>	0
<0xDC>	0
<0xDD>	0
<0xDE>	0
<0xDF>	0
<0xE0>	0
<0xE1>	0
<0xE2>	0
<0xE3>	0
<0xE4>	0
<0xE5>	0
<0xE6>	0
<0xE7>	0
<0xE8>	0
<0xE9>	0
<0xEA>	0
<0xEB>	0
<0xEC>	0
<0xED>	0
<0xEE>	0
<0xEF>	0
<0xF0>	0
<0xF1>	0
<0xF2>	0
<0xF3>	0
<0xF4>	0
<0xF5>	0
<0xF6>	0
<0xF7>	0
<0xF8>	0
<0xF9>	0
<0xFA>	0
<0xFB>	0
<0xFC>	0
<0xFD>	0
<0xFE>	0
<0xFF>	0
,	-3.32326
s	-3.38616
▁the	-3.47854
▁	-3.5355
.	-3.75478
▁of	-3.9868
▁and	-4.19241
▁in	-4.40235
▁to	-4.54655
▁a	-4.64355
-	-5.04921
▁(	-5.18081
।	-5.20469
ed	-5.22664
▁के	-5.24728
▁is	-5.30545
ing	-5.33748
▁में	-5.42317
▁है	-5.46765
d	-5.50079
'	-5.50278
)	-5.52049
▁as	-5.54062
▁was	-5.57184
▁for	-5.6376
▁by	-5.6468
▁that	-5.64728
▁The	-5.68644
▁with	-5.72233
e	-5.79026
▁on	-5.8975
▁"	-5.92273
▁की	-5.95921
▁और	-5.96999
al	-5.98162
▁are	-5.99907
▁from	-6.00518
er	-6.01147
ly	-6.03266
▁का	-6.03519
y	-6.07517
n	-6.0918
▁an	-6.1406
▁से	-6.16012
▁his	-6.18761
t	-6.18786
:	-6.25668
▁or	-6.25987
▁be	-6.27357
ों	-6.28912
th	-6.30572
in	-6.34611
ी	-6.35345
"	-6.3624
▁हैं	-6.36818
▁at	-6.3682
▁which	-6.37616
▁A	-6.39979
r	-6.44054
a	-6.45924
g	-6.47879
ल	-6.49359
▁it	-6.4973
c	-6.50017
▁को	-6.5227
es	-6.52757
o	-6.5324
▁were	-6.53789
p	-6.5391
न	-6.55144
▁he	-6.56307
▁In	-6.57136
i	-6.57224
or	-6.60022
▁have	-6.6157
The	-6.62498
re	-6.63098
▁not	-6.64125
र	-6.65819
;	-6.66478
),	-6.6657
ic	-6.6825
▁has	-6.72626
an	-6.72736
b	-6.73346
ा	-6.75242
▁also	-6.76429
S	-6.78132
ur	-6.78247
A	-6.81516
▁एक	-6.82834
▁their	-6.83354
▁had	-6.8349
म	-6.8492
en	-6.8504
क	-6.87191
ion	-6.87325
us	-6.89564
त	-6.89808
le	-6.90122
▁its	-6.91139
▁but	-6.91592
▁पर	-6.92638
▁C	-6.93729
st	-6.93737
▁re	-6.94761
ar	-6.95493
▁S	-6.96084
ation	-6.98647
▁other	-7.00681
l	-7.01432
▁one	-7.01839
▁first	-7.02153
li	-7.02403
स	-7.05583
▁this	-7.06398
u	-7.0676
ता	-7.08757
el	-7.09342
ra	-7.09555
on	-7.09847
▁भी	-7.10495
▁been	-7.10907
k	-7.11536
m	-7.11971
at	-7.12712
▁He	-7.1392
f	-7.14217
▁such	-7.14524
C	-7.15947
▁can	-7.16007
े	-7.16102
it	-7.1664
▁used	-7.16755
▁more	-7.17924
).	-7.18278
▁F	-7.19525
In	-7.19906
▁all	-7.20376
w	-7.20689
▁de	-7.21636
ri	-7.22212
▁p	-7.22764
्	-7.23843
प	-7.24066
▁most	-7.24811
▁than	-7.24883
ce	-7.25086
ि	-7.25546
▁into	-7.26615
▁who	-7.27147
il	-7.28143
ta	-7.28721
2	-7.29641
h	-7.30204
et	-7.30207
ो	-7.31095
▁अ	-7.31247
ं	-7.31839
▁किया	-7.32336
P	-7.34034
ित	-7.34193
▁they	-7.34511
▁19	-7.35393
lo	-7.35711
▁ने	-7.35872
▁G	-7.36446
ive	-7.36817
ity	-7.37081
la	-7.3751
▁18	-7.37547
ol	-7.3838
8	-7.38459
ers	-7.38938
▁some	-7.39404
▁B	-7.39676
se	-7.39768
▁यह	-7.40146
व	-7.40363
▁I	-7.40642
िक	-7.40725
3	-7.41488
▁two	-7.41869
im	-7.42881
ज	-7.43249
ent	-7.43271
ro	-7.43315
▁after	-7.43344
▁It	-7.4472
▁E	-7.44799
द	-7.44882
ह	-7.45015
▁कि	-7.45237
▁over	-7.45412
्य	-7.45765
▁would	-7.46266
ch	-7.46588
ने	-7.46629
un	-7.47108
▁many	-7.47519
–	-7.47725
ब	-7.47761
ia	-7.48649
ना	-7.49801
ul	-7.5077
▁गया	-7.50999
▁only	-7.51236
▁था	-7.51723
ment	-7.51757
▁between	-7.51958
▁P	-7.52328
▁American	-7.53539
te	-7.53731
ist	-7.53997
च	-7.54078
▁state	-7.54353
to	-7.54473
▁c	-7.5452
ु	-7.5456
▁Apollo	-7.54583
▁f	-7.54598
▁time	-7.54618
▁आ	-7.55456
E	-7.55917
▁जो	-7.57017
ad	-7.571
▁K	-7.57824
▁T	-7.58148
▁भारत	-7.5921
est	-7.59219
य	-7.59584
▁when	-7.59958
▁This	-7.60592
ism	-7.60953
tic	-7.61041
▁रूप	-7.61261
".	-7.61447
as	-7.61537
▁इस	-7.61923
ट	-7.62033
is	-7.62044
B	-7.62127
 	-7.6274
▁may	-7.6312
ू	-7.63669
ian	-7.63822
▁about	-7.64005
de	-7.64246
I	-7.6434
H	-7.64388
▁use	-7.644
4	-7.64607
▁co	-7.65105
▁लिए	-7.65251
z	-7.65452
ne	-7.65667
▁no	-7.65719
▁un	-7.65956
ry	-7.66116
T	-7.66665
▁M	-7.66843
id	-7.67121
▁during	-7.6751
ine	-7.67899
▁जाता	-7.6842
ग	-7.68497
na	-7.68857
▁H	-7.68952
the	-7.68986
▁so	-7.69791
D	-7.69939
M	-7.7012
x	-7.70384
ated	-7.70564
ma	-7.7075
ण	-7.70873
7	-7.71802
po	-7.71967
ate	-7.72545
ge	-7.72705
1	-7.7364
▁century	-7.7426
ध	-7.7452
/	-7.74747
um	-7.7485
▁U	-7.75039
श	-7.7526
v	-7.75441
ला	-7.75643
O	-7.76099
vi	-7.76887
%	-7.77553
able	-7.77564
▁art	-7.78021
▁D	-7.78134
▁her	-7.78156
am	-7.78508
▁V	-7.78515
ter	-7.7863
▁film	-7.78901
age	-7.79224
वा	-7.79274
▁years	-7.7946
▁W	-7.80228
▁him	-7.80303
रा	-7.80505
ir	-7.80582
▁Ma	-7.80744
▁up	-7.81197
▁while	-7.81236
▁where	-7.81737
▁ही	-7.81841
▁under	-7.81873
▁including	-7.81972
ary	-7.82167
▁हो	-7.82372
co	-7.82514
▁known	-7.82627
▁ब	-7.83315
▁people	-7.83478
▁war	-7.8402
▁out	-7.8408
▁War	-7.84184
ci	-7.85908
op	-7.86478
▁United	-7.86932
L	-7.86998
R	-7.87125
F	-7.8735
5	-7.87453
▁'	-7.87557
▁form	-7.87661
▁e	-7.87662
me	-7.87955
▁well	-7.88183
▁new	-7.88288
▁कर	-7.88295
▁them	-7.8832
ies	-7.8832
▁found	-7.8869
▁Re	-7.88784
▁there	-7.88795
and	-7.88845
▁न	-7.89049
▁these	-7.89353
ै	-7.89375
",	-7.89466
pe	-7.89498
▁स	-7.89624
▁part	-7.89747
▁later	-7.90428
▁या	-7.90531
ph	-7.9055
om	-7.90706
री	-7.90823
▁being	-7.90978
▁States	-7.9115
▁both	-7.91394
▁1	-7.91719
6	-7.92012
▁(19	-7.92147
▁R	-7.92558
▁world	-7.92568
▁number	-7.92714
ve	-7.92748
ha	-7.92769
ous	-7.92998
▁t	-7.93375
▁three	-7.93394
▁तथा	-7.93583
ru	-7.9397
ष	-7.94838
▁became	-7.9507
▁An	-7.95688
man	-7.95706
ीय	-7.95966
▁प्रदेश	-7.96022
▁O	-7.96244
—	-7.96583
ड	-7.96662
ca	-7.96748
ot	-7.96959
▁प्र	-7.97898
ओं	-7.98101
▁con	-7.9817
▁country	-7.9871
▁क्षेत्र	-7.99058
ho	-7.99189
▁dis	-7.99607
min	-7.99635
▁through	-7.99672
▁क	-8.00084
sh	-8.00901
9	-8.01463
▁New	-8.01754
di	-8.02299
▁द्वारा	-8.02478
ti	-8.02996
▁Alexander	-8.03155
▁often	-8.03398
▁नहीं	-8.03694
▁For	-8.03901
▁work	-8.04085
▁languages	-8.0426
▁एवं	-8.0431
ख	-8.04407
bo	-8.04486
ver	-8.04709
▁population	-8.05138
▁L	-8.052
mp	-8.0528
ton	-8.05346
▁made	-8.05785
ut	-8.05891
▁राज्य	-8.05917
▁early	-8.05972
ll	-8.06178
▁example	-8.06391
no	-8.0665
ted	-8.0749
▁do	-8.07617
▁साथ	-8.07963
▁called	-8.08045
ती	-8.08166
▁water	-8.08268
▁any	-8.08459
ियों	-8.08631
▁4	-8.09131
mi	-8.09401
▁government	-8.09461
com	-8.0947
▁pro	-8.09518
ant	-8.0962
▁Lincoln	-8.0988
▁city	-8.09935
ance	-8.10353
ली	-8.10579
▁म	-8.11571
▁जा	-8.11591
▁व	-8.11984
▁3	-8.12141
▁g	-8.12336
▁Greek	-8.12875
▁Arabic	-8.12945
em	-8.13209
G	-8.13624
▁include	-8.13644
▁h	-8.13775
▁year	-8.13822
▁प	-8.13929
क्ष	-8.14116
ac	-8.14245
ni	-8.14605
▁could	-8.14949
▁British	-8.14957
▁language	-8.15054
▁per	-8.15654
▁system	-8.15719
▁St	-8.15913
ते	-8.16056
▁end	-8.16592
▁Union	-8.16593
▁सं	-8.16759
ke	-8.16766
▁17	-8.17403
▁तक	-8.17605
▁हुआ	-8.17974
▁before	-8.18209
स्	-8.18411
ting	-8.18786
ell	-8.1952
land	-8.19661
va	-8.19867
▁North	-8.1991
▁Apple	-8.19941
go	-8.20014
▁name	-8.2039
▁because	-8.20847
mo	-8.20902
▁several	-8.2109
00	-8.21299
os	-8.21388
▁each	-8.22342
▁large	-8.22553
ig	-8.22607
N	-8.23283
▁द	-8.23448
▁group	-8.23533
▁भारतीय	-8.23942
नी	-8.23947
ty	-8.24216
▁सबसे	-8.2431
ill	-8.24318
ान	-8.24356
▁वि	-8.24872
tion	-8.2511
▁होता	-8.25194
▁life	-8.25218
▁च	-8.25406
▁उत्तर	-8.25531
▁based	-8.25784
▁2	-8.26111
be	-8.2629
ंग	-8.26352
ally	-8.2639
▁among	-8.27117
ठ	-8.27879
ie	-8.28002
up	-8.28054
."	-8.28122
▁different	-8.28166
कर	-8.28166
▁De	-8.28174
ति	-8.28644
▁high	-8.28667
▁di	-8.29012
▁ग	-8.29099
ct	-8.29166
▁around	-8.2921
▁four	-8.29348
ौ	-8.2938
▁set	-8.29518
pa	-8.29603
hi	-8.29629
he	-8.30017
20	-8.30025
मा	-8.30437
ial	-8.3064
all	-8.30724
▁Le	-8.30954
▁since	-8.31063
ating	-8.3129
▁Ca	-8.3142
▁However	-8.31503
▁same	-8.31614
▁नाम	-8.3166
▁human	-8.31738
,000	-8.31744
▁They	-8.31862
▁then	-8.32205
▁states	-8.32443
या	-8.32703
▁modern	-8.33234
▁non	-8.33464
ard	-8.33579
▁power	-8.33639
tu	-8.33734
▁will	-8.33827
▁until	-8.34358
▁long	-8.34431
ized	-8.34579
▁20	-8.3462
▁South	-8.34715
ag	-8.34729
▁10	-8.34785
ite	-8.34889
ba	-8.34917
▁La	-8.35162
▁those	-8.35196
▁Bo	-8.35288
da	-8.35292
▁5	-8.35458
nd	-8.35509
0	-8.35567
ran	-8.3573
▁धर्म	-8.35874
का	-8.35893
▁like	-8.3603
▁own	-8.36378
▁order	-8.36555
▁करने	-8.36702
▁due	-8.37643
▁death	-8.37753
▁sub	-8.37818
▁second	-8.37965
▁16	-8.38036
ence	-8.38056
▁बाद	-8.38096
▁6	-8.38115
der	-8.38191
▁As	-8.38191
भ	-8.38808
▁World	-8.38909
वि	-8.39003
if	-8.39094
▁b	-8.39116
▁Al	-8.39227
▁Warhol	-8.39281
▁land	-8.39367
▁much	-8.39517
▁considered	-8.39668
▁Bell	-8.39875
▁भाषा	-8.39978
▁University	-8.40081
▁back	-8.40124
ga	-8.40801
one	-8.40902
▁against	-8.41002
▁area	-8.41009
▁ज	-8.41186
प्र	-8.41374
थ	-8.41434
१	-8.41723
▁Co	-8.41771
▁Amsterdam	-8.42008
▁थे	-8.42166
५	-8.42464
▁Mar	-8.42631
▁major	-8.42704
ें	-8.42905
▁did	-8.42979
▁family	-8.4307
▁दिया	-8.43098
tra	-8.43289
क्	-8.43307
▁Alaska	-8.43375
▁US	-8.43731
ड़	-8.43733
▁largest	-8.43903
▁small	-8.44045
▁Audi	-8.44115
▁मनोविज्ञान	-8.44146
ish	-8.44253
▁control	-8.44475
ship	-8.44575
▁man	-8.4468
V	-8.44723
▁abortion	-8.44739
▁Pa	-8.44941
▁Mo	-8.45071
ई	-8.45331
ak	-8.45423
lu	-8.45725
▁अधिक	-8.45815
▁8	-8.45978
▁Me	-8.45983
ists	-8.46134
▁common	-8.46225
▁if	-8.46468
▁On	-8.46494
▁very	-8.46793
िया	-8.46828
▁–	-8.47038
▁Ar	-8.4708
▁कई	-8.47133
▁अन्य	-8.47146
०	-8.47284
▁way	-8.47377
ृ	-8.47926
▁ल	-8.48008
▁similar	-8.48048
कार	-8.48476
्र	-8.48537
▁7	-8.48903
W	-8.48919
▁m	-8.4909
▁support	-8.49113
▁period	-8.4925
्व	-8.49769
▁मा	-8.49892
ring	-8.49958
▁Br	-8.4996
ts	-8.50124
j	-8.5017
ले	-8.50177
▁Ba	-8.50187
ाय	-8.50902
▁N	-8.50922
(	-8.51014
▁million	-8.51221
▁15	-8.51276
▁within	-8.51499
अ	-8.51673
▁general	-8.51723
▁Asia	-8.51806
▁आदि	-8.51977
▁Roman	-8.52344
son	-8.52354
ical	-8.52516
ric	-8.52546
फ	-8.52546
▁pre	-8.52893
▁term	-8.52936
mon	-8.52936
ium	-8.53205
ार	-8.53219
U	-8.53224
ow	-8.53277
▁Na	-8.53311
▁11	-8.53448
▁To	-8.53595
▁short	-8.53625
our	-8.5387
▁car	-8.54028
ab	-8.54048
oc	-8.54199
▁कुछ	-8.54303
▁oil	-8.54315
ंड	-8.54443
▁acid	-8.55285
▁using	-8.55399
दा	-8.55494
▁various	-8.55667
▁थी	-8.55673
ang	-8.55873
▁इसके	-8.56045
gu	-8.56456
per	-8.56487
▁national	-8.5664
é	-8.56706
▁Sea	-8.56756
les	-8.56912
ness	-8.57055
▁Di	-8.57178
iv	-8.57344
ea	-8.57354
▁प्रमुख	-8.57414
mer	-8.57579
▁w	-8.57764
सी	-8.57956
▁sp	-8.57976
▁Europe	-8.57992
▁उ	-8.58205
▁श	-8.58734
▁ex	-8.58917
▁इ	-8.58995
▁These	-8.59082
ber	-8.59142
▁began	-8.59173
▁result	-8.59223
▁production	-8.59226
▁even	-8.59277
▁French	-8.59293
ven	-8.59519
ization	-8.59556
▁Ch	-8.5965
▁हिन्दी	-8.597
नि	-8.59775
▁नि	-8.59974
▁political	-8.60246
▁become	-8.6025
▁फ	-8.60781
tro	-8.61038
▁No	-8.6105
म्	-8.61127
▁following	-8.61177
gen	-8.612
ities	-8.61757
▁=	-8.61765
ens	-8.61869
ick	-8.6188
▁home	-8.62081
ner	-8.62086
▁National	-8.62268
ide	-8.62298
▁play	-8.62368
▁bi	-8.62384
▁she	-8.62419
▁alkali	-8.62432
▁Ra	-8.62481
au	-8.62529
७	-8.628
fe	-8.62836
▁At	-8.62838
▁present	-8.63014
cy	-8.63059
▁public	-8.63088
fi	-8.63282
▁Angola	-8.63378
▁12	-8.63447
▁Lo	-8.63481
६	-8.63542
८	-8.63542
▁now	-8.63734
con	-8.63756
tal	-8.6377
▁America	-8.64031
त्	-8.64061
bi	-8.64125
▁countries	-8.64294
ice	-8.6465
▁important	-8.64673
▁ह	-8.6481
ations	-8.65008
रे	-8.65132
ology	-8.65318
▁along	-8.65321
▁9	-8.65351
▁few	-8.65425
▁court	-8.65456
▁समय	-8.65478
▁every	-8.65504
▁Some	-8.65556
▁कारण	-8.65609
▁देश	-8.65756
▁भ	-8.65758
▁species	-8.65818
ov	-8.66101
पुर	-8.66152
▁Congress	-8.66184
▁what	-8.66185
▁सकता	-8.66185
▁Alabama	-8.66186
▁-	-8.66195
▁John	-8.66419
ward	-8.66586
▁Z	-8.66647
▁military	-8.66952
▁अनुसार	-8.66957
▁less	-8.67006
▁Be	-8.67187
▁His	-8.67223
ative	-8.67293
▁विकास	-8.67338
सा	-8.67541
▁Ne	-8.67652
▁Earth	-8.67693
red	-8.67698
wa	-8.67878
ound	-8.67936
▁Azerbaijan	-8.68142
sa	-8.68195
port	-8.68256
▁l	-8.68408
▁body	-8.68506
▁still	-8.6851
▁space	-8.68538
ture	-8.68982
मी	-8.69247
▁सा	-8.69325
▁करते	-8.69357
▁r	-8.69371
▁Ha	-8.69376
▁विश्व	-8.69575
ert	-8.69855
K	-8.69859
▁स्थित	-8.69965
▁J	-8.70059
▁शब्द	-8.70076
▁company	-8.70084
▁series	-8.70086
▁Li	-8.70142
▁en	-8.70222
▁region	-8.703
▁said	-8.70484
▁German	-8.70724
▁wrote	-8.70882
rs	-8.7104
▁developed	-8.71054
ex	-8.71099
▁led	-8.71277
▁Academy	-8.71284
▁study	-8.71284
४	-8.71284
ए	-8.7144
▁Hitchcock	-8.71688
▁music	-8.7171
que	-8.71756
वर	-8.71942
▁दो	-8.72315
che	-8.72363
▁संस्कृत	-8.72419
ck	-8.72628
tri	-8.72734
जी	-8.72766
res	-8.72773
▁main	-8.72797
▁Empire	-8.72906
ud	-8.73393
▁history	-8.73483
old	-8.73648
ten	-8.73717
▁social	-8.73728
▁इतिहास	-8.73915
▁जैसे	-8.73981
lay	-8.73993
▁last	-8.7404
line	-8.74341
▁Mi	-8.74468
▁sea	-8.74478
▁ख	-8.74569
▁इन	-8.74625
मान	-8.74766
▁European	-8.74923
▁hand	-8.75056
▁show	-8.75058
ling	-8.75101
▁free	-8.7546
10	-8.75642
तर	-8.75774
▁local	-8.75813
▁प्रति	-8.75865
▁development	-8.76251
▁यहाँ	-8.76271
बा	-8.76303
▁Achilles	-8.76325
▁law	-8.76368
तु	-8.76425
▁खेल	-8.76462
▁make	-8.7659
do	-8.76655
tr	-8.76748
▁although	-8.76969
इ	-8.7703
▁culture	-8.77085
tor	-8.77193
स्ट	-8.77261
२	-8.77475
▁theory	-8.77696
ub	-8.77706
▁take	-8.77717
ong	-8.77847
▁function	-8.77939
▁surface	-8.77939
त्र	-8.78027
▁north	-8.78123
▁included	-8.78284
▁York	-8.7837
od	-8.78485
▁Agassi	-8.78488
▁त	-8.78579
▁दक्षिण	-8.78706
ka	-8.78759
less	-8.78785
▁Po	-8.78813
▁films	-8.78864
▁English	-8.79052
▁शहर	-8.7906
▁process	-8.79078
▁works	-8.79139
▁कहा	-8.79187
रो	-8.79532
▁13	-8.79554
yn	-8.79581
▁Einstein	-8.79592
▁south	-8.79635
▁Aristotle	-8.79755
▁Albania	-8.79821
▁Alberta	-8.79893
▁natural	-8.79904
act	-8.79964
▁book	-8.79983
▁सु	-8.80002
▁view	-8.80138
▁character	-8.80215
▁तो	-8.80313
▁place	-8.80387
mar	-8.80912
ाई	-8.80929
▁late	-8.81033
▁करता	-8.81213
ue	-8.81292
▁स्थान	-8.81405
▁बहुत	-8.81468
▁हुए	-8.81887
▁five	-8.82119
▁usually	-8.82142
▁groups	-8.82145
▁novel	-8.82372
ction	-8.82615
▁Afghanistan	-8.82968
▁Ro	-8.82976
▁named	-8.83099
▁areas	-8.83435
▁वह	-8.83455
▁established	-8.83623
▁14	-8.8375
▁took	-8.83761
ron	-8.83875
▁मे	-8.83932
▁left	-8.84152
▁men	-8.84223
cent	-8.84319
जा	-8.84409
fa	-8.8442
▁point	-8.84474
▁अपने	-8.84609
▁animation	-8.84609
▁There	-8.84769
ज़	-8.84974
19	-8.85178
▁orbit	-8.85229
io	-8.85424
▁बा	-8.8547
▁शामिल	-8.85532
▁just	-8.85534
▁near	-8.85754
▁Con	-8.85909
्या	-8.86046
▁After	-8.86059
0,000	-8.8615
्स	-8.86169
▁case	-8.86406
und	-8.86541
▁Schopenhauer	-8.86607
van	-8.86653
lic	-8.86662
▁Africa	-8.86707
men	-8.8671
qu	-8.86755
▁mo	-8.86775
ंद	-8.86923
cu	-8.86931
▁उप	-8.86945
▁पूर्व	-8.87021
▁given	-8.87134
▁al	-8.87292
]	-8.87405
▁however	-8.8741
▁having	-8.87414
९	-8.87419
ach	-8.87438
led	-8.87617
गा	-8.87709
▁International	-8.8788
qui	-8.88024
▁Atlantic	-8.881
शा	-8.88152
▁हुई	-8.88355
▁air	-8.88528
▁without	-8.88582
▁live	-8.88716
▁वे	-8.88882
▁son	-8.88965
ob	-8.89016
▁metals	-8.89018
▁final	-8.89081
▁घ	-8.89252
▁great	-8.895
▁छ	-8.896
▁science	-8.89626
▁word	-8.89809
pro	-8.89831
▁सरकार	-8.89935
tt	-8.89937
ap	-8.89971
▁we	-8.90319
▁another	-8.9036
टी	-8.90441
ण्ड	-8.90511
▁Ho	-8.90596
▁imp	-8.90599
▁person	-8.90676
▁बीच	-8.90791
▁कम	-8.90814
day	-8.90951
▁Ta	-8.91012
▁written	-8.91013
bu	-8.91073
▁head	-8.91134
▁produced	-8.91584
▁reason	-8.91754
▁total	-8.91835
duc	-8.9187
▁act	-8.91949
▁sometimes	-8.91956
▁कला	-8.92038
रण	-8.92145
▁ए	-8.92224
▁data	-8.92253
▁Art	-8.92306
J	-8.92334
्म	-8.92404
▁Sa	-8.92588
lan	-8.92623
▁down	-8.92753
▁ma	-8.92791
▁विज्ञान	-8.92853
ये	-8.92879
वीं	-8.92952
ev	-8.93104
50	-8.93116
ile	-8.93226
▁होती	-8.93341
▁BC	-8.93503
")	-8.93519
▁light	-8.93524
▁सि	-8.9356
▁When	-8.93731
▁day	-8.93741
cul	-8.93785
▁पहले	-8.93788
nes	-8.93817
▁जाती	-8.93832
▁मध्य	-8.93948
▁especially	-8.94059
▁rate	-8.94086
▁popular	-8.94192
▁April	-8.94254
▁अध्ययन	-8.94254
▁spoken	-8.94298
्‍	-8.94314
nt	-8.94353
▁cause	-8.9436
▁Confederate	-8.94429
▁structure	-8.9457
▁भूगोल	-8.94606
▁held	-8.94766
▁गए	-8.94795
ane	-8.94821
▁रहा	-8.94864
▁lower	-8.94967
▁बना	-8.94972
ize	-8.95041
▁rule	-8.95059
▁change	-8.95124
den	-8.95283
pt	-8.95345
लि	-8.95354
एँ	-8.9537
▁sta	-8.95442
▁line	-8.95554
▁published	-8.95607
On	-8.95616
▁वाले	-8.95803
▁computer	-8.95807
▁सम	-8.95889
यों	-8.95976
▁Y	-8.96118
▁position	-8.96137
▁central	-8.963
ler	-8.96314
▁economic	-8.96494
ator	-8.9661
▁movement	-8.96847
▁field	-8.96877
३	-8.97012
ise	-8.97059
▁crew	-8.9734
▁भाग	-8.97451
▁१९	-8.97507
ym	-8.97723
▁either	-8.97863
▁Atlas	-8.97866
▁Ka	-8.97958
▁वर्ष	-8.97994
न्द	-8.98065
▁July	-8.98068
▁former	-8.98104
के	-8.98117
cha	-8.98159
▁exist	-8.98162
▁Soviet	-8.9817
vo	-8.98212
▁means	-8.98307
▁times	-8.9837
▁capital	-8.98391
▁River	-8.98405
▁v	-8.98539
▁होने	-8.98572
▁design	-8.9891
▁मानव	-8.98922
▁metal	-8.98976
dy	-8.9924
▁काल	-8.99251
▁give	-8.99402
बर	-8.99449
▁individual	-8.9945
▁material	-8.9945
▁research	-8.9945
▁attack	-8.99451
्ट	-8.99676
▁real	-8.99826
istic	-8.99856
▁Ni	-8.99868
▁र	-8.99918
▁province	-8.99985
▁Civil	-8.99985
▁सभी	-8.99996
▁trade	-9.00016
ोपनिषद्	-9.00066
▁described	-9.00197
fin	-9.00291
for	-9.00319
▁systems	-9.0032
ors	-9.00444
▁words	-9.00511
▁appeal	-9.00523
ff	-9.00708
ological	-9.0083
▁By	-9.00991
▁six	-9.01135
▁should	-9.01606
ual	-9.01648
▁interest	-9.01656
▁increase	-9.01744
▁terms	-9.02236
▁ई	-9.02324
▁forms	-9.02351
ier	-9.02359
▁side	-9.02686
▁model	-9.02698
ात्मक	-9.02703
▁me	-9.02717
▁forces	-9.02736
▁Indian	-9.02766
arch	-9.02866
▁May	-9.02904
ris	-9.02992
ign	-9.03046
form	-9.03071
▁meaning	-9.03083
▁came	-9.03206
▁प्राचीन	-9.0321
▁bitumen	-9.03255
▁range	-9.0326
▁aircraft	-9.0326
▁mass	-9.03414
▁origin	-9.03486
ability	-9.03623
▁$	-9.03666
▁does	-9.03673
▁राष्ट्रीय	-9.03759
▁choice	-9.03811
▁won	-9.03954
की	-9.03955
▁strong	-9.04127
▁Do	-9.04151
rop	-9.04238
से	-9.04252
रि	-9.04284
▁August	-9.04369
▁version	-9.04369
▁title	-9.04371
200	-9.04408
▁Moon	-9.04527
▁original	-9.04625
▁formed	-9.0465
▁god	-9.04704
▁मुख्य	-9.04924
▁energy	-9.04931
▁rather	-9.04931
ides	-9.05043
ral	-9.05085
▁Aruba	-9.05338
▁technology	-9.05496
▁least	-9.05503
sis	-9.05617
▁provide	-9.05656
स्थ	-9.06071
▁help	-9.06098
▁food	-9.06117
▁प्रकार	-9.06126
ster	-9.06142
we	-9.06169
▁must	-9.06221
▁style	-9.06253
जन	-9.06265
▁created	-9.06301
late	-9.06367
ning	-9.06397
▁नगर	-9.06448
ाव	-9.0649
rat	-9.06517
15	-9.06518
phy	-9.06565
▁practice	-9.06635
▁single	-9.06642
▁X	-9.0666
yl	-9.06672
▁गई	-9.06684
▁अनु	-9.06712
▁किसी	-9.06732
ration	-9.06742
▁effect	-9.06744
▁Other	-9.06755
ates	-9.06769
▁कार्य	-9.06774
▁generally	-9.07053
▁Man	-9.07109
gi	-9.07125
▁located	-9.0721
▁international	-9.07213
▁मु	-9.07223
हा	-9.07272
▁thought	-9.07456
fer	-9.07488
▁elements	-9.07517
▁rest	-9.07542
mal	-9.07547
▁So	-9.07613
▁France	-9.07789
▁anime	-9.07794
ible	-9.07799
ries	-9.078
▁प्रयोग	-9.0781
▁army	-9.07946
क्त	-9.08282
▁across	-9.0837
▁Latin	-9.08371
ple	-9.08405
व्य	-9.08494
▁close	-9.08554
ger	-9.0857
ugh	-9.08588
▁Sh	-9.08623
▁members	-9.08652
▁see	-9.0868
▁market	-9.08686
▁Da	-9.08693
▁though	-9.08706
▁30	-9.08752
▁program	-9.08774
▁Washington	-9.08954
▁alphabet	-9.08954
▁General	-9.08976
▁throughout	-9.08983
▁school	-9.09093
▁influence	-9.09133
▁base	-9.09229
ाल	-9.09361
log	-9.09407
bit	-9.09471
end	-9.09513
योग	-9.09519
chi	-9.09569
vel	-9.09657
12	-9.0975
▁n	-9.09779
▁fl	-9.09878
▁अर्थ	-9.10085
°	-9.10134
▁Pe	-9.1022
ful	-9.10237
▁Rand	-9.10303
par	-9.1036
▁Algeria	-9.10379
▁numbers	-9.10386
▁पा	-9.10457
▁Great	-9.1073
pp	-9.10823
▁परि	-9.10941
▁significant	-9.11086
▁followed	-9.11112
ography	-9.1122
▁One	-9.11233
way	-9.11328
▁September	-9.11328
▁Army	-9.1134
▁others	-9.11361
▁how	-9.11386
द्ध	-9.11629
▁Andorra	-9.11686
▁official	-9.11688
17	-9.11799
mit	-9.118
▁gas	-9.11816
िन	-9.11854
▁El	-9.11868
▁health	-9.11937
गी	-9.11973
▁anti	-9.12094
▁particular	-9.12295
▁इसे	-9.12302
▁ancient	-9.12537
▁Th	-9.12584
▁२	-9.12593
▁record	-9.12605
▁She	-9.12864
▁mission	-9.12938
िंग	-9.1305
▁ध	-9.13059
▁Car	-9.13138
▁himself	-9.13157
▁बढ़	-9.13176
▁far	-9.13259
दी	-9.13264
lar	-9.13268
▁March	-9.13319
si	-9.13395
ley	-9.13425
▁लगभग	-9.13468
har	-9.13503
▁inter	-9.13523
▁anthropology	-9.1376
▁Ju	-9.13822
▁हर	-9.1385
▁Am	-9.13954
▁continued	-9.14021
tan	-9.14104
▁next	-9.14377
▁women	-9.14377
▁China	-9.14389
▁animals	-9.1459
▁built	-9.1474
▁produce	-9.14819
िल	-9.1487
▁off	-9.14965
▁campaign	-9.14998
▁economy	-9.14998
▁education	-9.14998
▁2010	-9.15035
्त	-9.15088
ju	-9.15272
▁met	-9.1534
▁related	-9.15471
An	-9.15471
▁Gu	-9.15484
▁author	-9.15542
▁writing	-9.15623
▁लेकिन	-9.15623
▁good	-9.15669
▁June	-9.15673
▁making	-9.15715
row	-9.15854
▁Battle	-9.15904
by	-9.15944
▁type	-9.16138
▁philosophy	-9.16269
▁Si	-9.16351
▁Pro	-9.16431
▁office	-9.16435
cal	-9.16534
▁0	-9.16559
▁Western	-9.16623
ban	-9.16638
▁carbon	-9.16642
▁West	-9.16682
nic	-9.1671
ft	-9.16754
▁Ja	-9.16872
▁evidence	-9.16885
▁Dutch	-9.16892
वाद	-9.16934
उ	-9.1706
ks	-9.17237
▁स्व	-9.17434
▁विशेष	-9.17437
▁लिये	-9.17523
▁प्राप्त	-9.17526
cle	-9.1756
▁list	-9.17586
ोर	-9.17612
▁Animal	-9.17673
▁Mon	-9.17841
graph	-9.17883
▁ड	-9.17941
▁slavery	-9.17977
▁December	-9.18163
▁London	-9.18163
▁father	-9.18163
▁troops	-9.18163
▁northern	-9.18164
win	-9.18195
▁Many	-9.18199
▁thus	-9.18217
ood	-9.18244
▁script	-9.1825
ius	-9.18395
million	-9.1841
▁Anatolia	-9.1858
▁asteroid	-9.18658
▁east	-9.18685
▁Com	-9.18794
ढ	-9.18801
▁account	-9.18808
▁East	-9.1881
▁test	-9.18866
▁cultural	-9.18928
▁media	-9.18934
As	-9.18946
ँ	-9.19002
▁While	-9.19025
igh	-9.19091
ung	-9.19125
▁Tarkovsky	-9.19227
▁algorithm	-9.19325
ious	-9.19337
▁possible	-9.19458
▁subject	-9.19458
time	-9.19502
▁low	-9.1953
▁Mu	-9.19579
orn	-9.19592
शि	-9.19598
▁post	-9.19621
gra	-9.19722
ास	-9.1975
mm	-9.19872
रु	-9.19902
her	-9.19934
▁standard	-9.20003
Re	-9.20103
▁certain	-9.20111
▁symbol	-9.20111
▁Court	-9.20112
▁अनेक	-9.20114
▁asteroids	-9.20264
▁tax	-9.20311
▁west	-9.20451
▁Albanian	-9.20452
▁characters	-9.2056
▁India	-9.20572
11	-9.20672
▁third	-9.20674
▁higher	-9.20729
▁concept	-9.20769
▁come	-9.20774
ां	-9.20797
▁role	-9.20806
cho	-9.20853
▁cities	-9.20874
▁attempt	-9.20888
आ	-9.20929
▁received	-9.20957
▁उस	-9.21083
▁African	-9.21088
▁Russian	-9.21215
|	-9.21431
▁अपनी	-9.21432
▁relationship	-9.21438
▁almost	-9.21446
▁parts	-9.21501
▁Te	-9.21602
king	-9.21609
su	-9.21641
▁command	-9.21658
▁लिपि	-9.21727
▁sh	-9.21742
▁mostly	-9.21828
▁product	-9.21912
▁[	-9.21994
val	-9.2206
air	-9.22077
▁further	-9.22098
▁industry	-9.22098
▁engine	-9.22115
▁नदी	-9.22144
▁fish	-9.22221
पा	-9.22304
▁सी	-9.22316
▁Or	-9.2233
▁जाने	-9.22383
वे	-9.22511
भा	-9.22751
▁nation	-9.22754
▁special	-9.22764
▁विश्वविद्यालय	-9.22769
▁young	-9.2277
▁mother	-9.22781
त्त	-9.22848
ya	-9.22949
nce	-9.23109
देव	-9.23162
ाँ	-9.23177
▁current	-9.23202
▁बन	-9.2321
▁age	-9.23317
mu	-9.2332
▁climate	-9.23445
▁average	-9.23447
▁21	-9.23463
▁Institute	-9.23496
▁electron	-9.23501
▁जब	-9.23555
▁mis	-9.2356
▁claim	-9.23607
▁fall	-9.23627
ey	-9.23663
▁object	-9.23705
▁Se	-9.23734
▁success	-9.23903
▁October	-9.24125
▁measure	-9.24125
▁जनसंख्या	-9.24125
▁river	-9.24133
▁जिसमें	-9.24139
▁products	-9.24193
rate	-9.24247
art	-9.24339
▁वा	-9.24348
lit	-9.24546
ae	-9.24555
▁allow	-9.24647
▁During	-9.24756
▁January	-9.2481
▁half	-9.24813
द्	-9.24895
▁stage	-9.24912
▁होते	-9.24929
▁force	-9.24943
▁Ph	-9.24948
▁cover	-9.25149
टे	-9.25185
हार	-9.25227
फ़	-9.25254
▁कुल	-9.25256
▁reported	-9.25313
▁fact	-9.25322
▁Republic	-9.25385
▁action	-9.25461
vision	-9.25486
18	-9.25489
▁ऑस्ट्रेलिया	-9.25523
▁2011	-9.25526
ified	-9.25607
let	-9.25644
▁discovered	-9.25666
▁William	-9.25718
90	-9.2574
70	-9.25746
▁Although	-9.25794
▁coast	-9.25942
▁increased	-9.26019
▁Arab	-9.26068
▁ये	-9.26096
▁territory	-9.26194
▁legal	-9.26197
▁2014	-9.26215
▁vi	-9.2627
▁associated	-9.26293
out	-9.26479
▁mean	-9.26505
▁सू	-9.26578
को	-9.26724
American	-9.26781
▁independence	-9.26894
▁southern	-9.26894
▁2009	-9.26905
▁Bu	-9.2692
▁Per	-9.26967
ko	-9.26983
▁2000	-9.26996
▁open	-9.27073
tch	-9.27083
press	-9.2742
देश	-9.27458
ja	-9.27485
ay	-9.27561
▁analysis	-9.27598
▁friend	-9.27598
▁project	-9.27598
▁image	-9.27609
▁यहां	-9.27665
▁Har	-9.27678
▁इसका	-9.27722
▁II	-9.27805
कृत	-9.27807
द्र	-9.27877
▁remained	-9.27883
ians	-9.28155
16	-9.2818
year	-9.28252
’	-9.28307
▁बल्लेबाज	-9.28307
▁team	-9.28314
▁hold	-9.28361
▁Press	-9.28399
▁letter	-9.28491
दि	-9.28534
lin	-9.28541
▁experiment	-9.28728
▁+	-9.28745
unt	-9.28753
▁आगरा	-9.28832
▁According	-9.28924
ज्ञ	-9.2902
▁lost	-9.29043
ari	-9.29077
मे	-9.2911
त्व	-9.2916
ised	-9.29199
cor	-9.29253
▁religious	-9.29269
▁seen	-9.29323
▁moved	-9.29338
30	-9.29364
▁ग्	-9.29519
▁commercial	-9.29741
▁solution	-9.29741
▁reflect	-9.29741
▁नृत्य	-9.29741
▁2012	-9.2977
▁lack	-9.2978
▁वाली	-9.29782
▁flight	-9.29788
ros	-9.29826
▁believed	-9.29935
▁sound	-9.29995
ड़ा	-9.30012
▁song	-9.30148
▁Japanese	-9.30165
▁पाकिस्तान	-9.30229
▁la	-9.30262
▁star	-9.30364
▁birth	-9.30466
▁travel	-9.30466
▁above	-9.30467
▁Southern	-9.30468
▁itself	-9.30512
▁died	-9.30567
▁return	-9.30654
use	-9.30675
▁State	-9.30819
▁taken	-9.30852
डी	-9.30906
पी	-9.31107
▁complex	-9.31195
▁distinct	-9.31195
▁gave	-9.31198
▁राज	-9.31204
्रे	-9.31381
ory	-9.31392
ंस	-9.31431
▁method	-9.31482
aw	-9.31496
▁Christian	-9.31607
▁western	-9.31769
▁organ	-9.31772
▁tri	-9.31856
▁देवनागरी	-9.3189
▁Spanish	-9.31931
▁मंदिर	-9.31931
▁तरह	-9.31934
▁Persian	-9.31977
▁class	-9.32083
▁करना	-9.32171
▁मिल	-9.32186
▁report	-9.32321
▁addition	-9.32355
▁independent	-9.32419
ik	-9.32501
▁du	-9.32552
▁Sp	-9.32554
▁संख्या	-9.32671
▁center	-9.32707
gar	-9.32731
rd	-9.32736
▁plant	-9.32921
▁need	-9.32962
ved	-9.33001
elect	-9.33019
▁element	-9.3302
वास	-9.33064
ure	-9.33078
48	-9.33097
▁Wa	-9.33127
▁Johnston	-9.33132
गर	-9.33135
था	-9.33222
पर	-9.33263
ana	-9.33355
▁Go	-9.33406
▁families	-9.33418
▁निर्माण	-9.33418
▁Canada	-9.33418
▁axiom	-9.3342
घ	-9.33467
▁gold	-9.33488
▁farm	-9.33521
▁highest	-9.33562
▁लोगों	-9.33586
▁building	-9.33626
▁suggest	-9.33627
▁क्रिकेट	-9.33677
भारत	-9.33691
▁personal	-9.33698
▁कोई	-9.33774
ene	-9.33806
▁size	-9.33859
ria	-9.33901
▁24	-9.34003
za	-9.34007
des	-9.34139
▁estimated	-9.34169
▁हिंदू	-9.34175
▁वेद	-9.3419
▁Her	-9.34255
▁भाषाओं	-9.34258
सं	-9.34302
▁right	-9.34431
▁sign	-9.34527
▁जीवन	-9.34558
▁island	-9.3458
▁features	-9.34795
▁love	-9.34837
▁&	-9.3484
▁President	-9.34927
▁according	-9.34927
▁temperature	-9.34927
▁दोनों	-9.34927
▁focus	-9.3493
▁border	-9.3494
▁केवल	-9.34953
▁Ankara	-9.34954
▁proposed	-9.34982
▁typically	-9.35012
ark	-9.3502
▁जाते	-9.35028
century	-9.35068
वी	-9.35138
▁ट	-9.35239
like	-9.35269
ome	-9.35482
Al	-9.35535
▁Ge	-9.35654
▁date	-9.35668
▁February	-9.3569
▁साहित्य	-9.3569
ü	-9.3569
▁black	-9.35691
▁25	-9.35702
▁2020	-9.35761
▁मह	-9.35843
ham	-9.35906
▁president	-9.3593
▁लखनऊ	-9.35948
put	-9.36039
▁1,	-9.3607
▁ca	-9.36121
▁value	-9.36149
tter	-9.36156
▁महा	-9.36197
ix	-9.36237
▁(18	-9.36314
▁children	-9.3646
▁Island	-9.36466
▁referred	-9.36471
र्म	-9.36477
);	-9.36521
▁introduced	-9.36524
▁We	-9.36638
cc	-9.36753
▁director	-9.36788
36	-9.36819
▁leading	-9.36878
▁male	-9.36933
▁trans	-9.36973
▁rights	-9.37114
▁sent	-9.37129
▁Aberdeen	-9.37235
▁November	-9.37235
▁global	-9.37235
न्	-9.37299
▁run	-9.3731
80	-9.37337
ray	-9.37362
▁majority	-9.37399
ंक	-9.37527
▁site	-9.3753
िका	-9.37559
ack	-9.37637
बी	-9.37668
ica	-9.37724
▁Ex	-9.37868
▁All	-9.37869
▁television	-9.38016
▁traditional	-9.38024
ify	-9.38102
ste	-9.38138
ai	-9.38183
ox	-9.38264
▁represent	-9.38335
▁स्	-9.38485
▁tradition	-9.38524
▁‘	-9.38618
▁visit	-9.38791
▁Britain	-9.38803
▁प्रथम	-9.38804
▁foreign	-9.38805
ned	-9.38892
▁रहे	-9.39044
ook	-9.39055
▁limited	-9.39081
▁direct	-9.39151
गढ़	-9.39209
एं	-9.3925
▁larger	-9.39314
▁Ga	-9.39376
▁level	-9.39392
▁links	-9.3947
▁wide	-9.39571
▁Central	-9.39597
▁little	-9.39598
▁आधुनिक	-9.39602
▁never	-9.39614
but	-9.39646
ष्ट	-9.39651
sky	-9.39674
▁माना	-9.39746
▁turn	-9.3986
ose	-9.40088
▁away	-9.40094
▁गाँधी	-9.40137
vol	-9.40174
▁संगीत	-9.40257
hal	-9.40362
तः	-9.40372
ā	-9.40397
▁decision	-9.40397
▁variety	-9.40397
▁anarchist	-9.40399
▁successful	-9.4041
▁Pi	-9.40444
dia	-9.40499
han	-9.40686
+	-9.40707
ular	-9.40827
▁albedo	-9.41203
▁religion	-9.41203
▁व्यवहार	-9.41203
▁access	-9.41204
▁leader	-9.41247
13	-9.41295
▁reaction	-9.4134
छ	-9.41526
▁experience	-9.41605
side	-9.41737
▁कु	-9.41864
▁जी	-9.41928
▁With	-9.4198
▁paper	-9.4202
▁best	-9.42181
▁Park	-9.42192
▁past	-9.42204
▁Hi	-9.42273
light	-9.4233
▁types	-9.42383
▁regions	-9.42414
▁k	-9.42418
▁Huxley	-9.42422
मार	-9.42513
▁era	-9.42647
▁formal	-9.42758
ping	-9.4283
▁agricultural	-9.42836
ö	-9.42836
▁famous	-9.42836
▁2006	-9.42838
▁उनके	-9.42848
▁मूल	-9.42859
–19	-9.43011
▁br	-9.43024
▁ten	-9.43068
▁दे	-9.43077
▁vote	-9.43117
▁ओ	-9.43149
▁Japan	-9.43179
qua	-9.4331
▁लोग	-9.43476
▁dr	-9.43501
▁problems	-9.43555
▁available	-9.43663
▁figure	-9.43663
▁तीन	-9.43696
There	-9.43703
▁▁▁▁	-9.43705
▁Egyptian	-9.43716
▁अलग	-9.43718
▁Act	-9.43892
▁widely	-9.43917
▁pass	-9.43983
bb	-9.44072
▁separate	-9.44084
▁बि	-9.44137
▁white	-9.4415
14	-9.44287
Ma	-9.44291
low	-9.44357
▁Gen	-9.4437
▁objects	-9.44489
▁conflict	-9.44496
▁eventually	-9.44496
▁amount	-9.44496
aceae	-9.44505
▁2017	-9.4453
▁read	-9.44539
▁Gra	-9.4473
▁follow	-9.45158
▁Jo	-9.45236
▁text	-9.45323
_	-9.45336
part	-9.45343
▁विभिन्न	-9.4535
▁ground	-9.45352
▁outside	-9.45382
▁review	-9.45396
tent	-9.45468
▁sold	-9.45542
cell	-9.45641
▁plan	-9.45811
ंत	-9.45938
▁arm	-9.46006
Co	-9.46023
▁techniques	-9.46032
▁२०	-9.46125
▁includes	-9.46127
▁संस्कृति	-9.4614
▁battle	-9.46179
▁themselves	-9.46184
iti	-9.46218
▁बड़ा	-9.46232
See	-9.46245
▁Republican	-9.46331
▁app	-9.46331
▁exp	-9.46456
▁बार	-9.46483
▁upon	-9.46629
▁call	-9.46703
▁whose	-9.46835
55	-9.46887
▁difficult	-9.46999
ani	-9.47036
▁alchemy	-9.47038
▁principle	-9.47038
▁hydrogen	-9.47039
▁केंद्र	-9.47039
▁instead	-9.47039
▁उपयोग	-9.47059
▁percent	-9.47094
▁राष्ट्र	-9.47124
2)	-9.47133
िय	-9.47145
ah	-9.47202
ढ़	-9.47427
▁changes	-9.4761
▁companies	-9.47901
▁primary	-9.47901
▁whether	-9.47901
▁राजस्थान	-9.47901
▁salt	-9.4792
▁स्थल	-9.4792
▁क्र	-9.47922
▁organization	-9.47922
▁impact	-9.47929
▁season	-9.47948
▁feature	-9.48051
▁self	-9.48064
टा	-9.48075
▁pe	-9.48094
▁इसी	-9.4821
▁Most	-9.48217
▁required	-9.48237
▁particularly	-9.48245
ologist	-9.48272
▁equal	-9.48363
▁top	-9.48381
▁go	-9.484
▁आज	-9.48523
▁गु	-9.48527
▁specific	-9.48537
og	-9.48568
▁sc	-9.48588
kh	-9.48654
▁acids	-9.48671
▁days	-9.48721
▁lunar	-9.4877
▁इसकी	-9.48849
▁growth	-9.48884
rin	-9.48893
▁रही	-9.48924
▁problem	-9.48932
tant	-9.49061
pen	-9.49235
▁50	-9.49298
▁List	-9.49322
▁Ru	-9.49329
▁भर	-9.49513
▁house	-9.49536
25	-9.49574
चा	-9.4959
▁City	-9.49608
▁Museum	-9.49647
▁nature	-9.4965
▁alkanes	-9.4974
▁service	-9.49786
काल	-9.49853
▁उद्योग	-9.49926
▁started	-9.50028
ification	-9.501
आई	-9.50152
▁scholars	-9.5018
▁100	-9.50256
own	-9.50414
je	-9.50454
▁recent	-9.50485
▁largely	-9.5051
ock	-9.5051
▁earlier	-9.50532
▁temple	-9.50532
▁शताब्दी	-9.50532
▁शिक्षा	-9.50532
▁application	-9.50532
▁इसमें	-9.50532
▁living	-9.50533
▁physical	-9.50533
▁1960	-9.50596
ou	-9.50621
bal	-9.50645
▁San	-9.50646
▁saw	-9.5066
्रा	-9.50661
q	-9.5081
▁ओर	-9.50811
del	-9.50815
▁जाना	-9.50821
▁lead	-9.5089
ept	-9.5096
▁पंजाब	-9.51001
▁reached	-9.51009
▁चार	-9.51188
ek	-9.5119
▁returned	-9.51193
▁sets	-9.51244
▁smaller	-9.51251
▁मि	-9.51255
िट	-9.51262
References	-9.51425
▁centuries	-9.51425
▁spacecraft	-9.51436
▁tend	-9.51451
zo	-9.51515
▁40	-9.51568
▁मनो	-9.51608
▁Book	-9.5161
▁went	-9.51617
▁table	-9.51663
▁consider	-9.51745
▁sources	-9.51863
▁En	-9.51887
lli	-9.51889
▁town	-9.51895
ही	-9.51918
▁Sch	-9.51924
For	-9.51936
60	-9.51979
▁गुजरात	-9.52014
▁("	-9.52114
ze	-9.52156
▁again	-9.52227
▁चंडीगढ़	-9.52277
External	-9.52326
▁private	-9.52326
▁उपिनषद्	-9.52326
▁algae	-9.52326
वाल	-9.52328
▁host	-9.52351
▁ले	-9.52356
़	-9.5241
54	-9.52411
▁Su	-9.52423
▁react	-9.52468
कला	-9.52469
▁अंतर	-9.52599
▁mark	-9.52718
न्त	-9.52753
▁provided	-9.5298
▁letters	-9.53006
▁Un	-9.53012
▁एशिया	-9.53049
2%	-9.53085
▁रख	-9.53189
▁approach	-9.53235
▁numerous	-9.53235
▁studies	-9.53235
▁location	-9.53235
▁spread	-9.53235
▁बे	-9.53236
▁front	-9.53236
▁charge	-9.53239
▁seven	-9.53241
ust	-9.53241
▁2021	-9.53251
▁approximately	-9.53265
▁2018	-9.53267
▁Air	-9.53298
▁Open	-9.53318
▁relatively	-9.53369
कि	-9.53381
ef	-9.5368
▁remains	-9.53723
onic	-9.53822
▁Best	-9.53993
▁civil	-9.53999
of	-9.54071
▁agriculture	-9.54153
▁prevent	-9.54154
▁medical	-9.54159
▁2016	-9.54184
▁1990	-9.54239
▁प्रा	-9.54287
az	-9.54328
▁George	-9.54527
▁events	-9.54637
चे	-9.54734
▁Nobel	-9.54737
▁उन	-9.54853
lon	-9.54933
After	-9.54957
▁collect	-9.54975
▁आधार	-9.55013
▁प्रभाव	-9.55043
board	-9.55053
▁सामान्य	-9.55078
▁Aegean	-9.55079
▁together	-9.55079
▁always	-9.5508
▁विषय	-9.55081
▁article	-9.55081
▁2005	-9.5509
▁2007	-9.55092
▁key	-9.55121
▁speakers	-9.55125
▁Age	-9.5513
ny	-9.55159
ble	-9.55164
based	-9.55177
▁defined	-9.55253
▁mid	-9.55277
▁directly	-9.55366
▁Du	-9.556
▁दर	-9.55762
▁Angolan	-9.55775
66	-9.55798
▁caused	-9.55832
off	-9.55876
▁उन्होंने	-9.56013
▁bond	-9.56018
▁2015	-9.56054
▁जिन	-9.56064
नो	-9.56085
▁1970	-9.56101
▁code	-9.56186
▁जन	-9.56234
▁able	-9.56248
सर	-9.56329
ami	-9.56337
▁find	-9.56498
ाम	-9.56551
▁1980	-9.56649
ीन	-9.56669
▁schools	-9.56733
▁cost	-9.56854
▁highly	-9.56879
▁announced	-9.56956
▁policy	-9.56956
▁anarchism	-9.56957
▁learn	-9.56957
▁clear	-9.56961
▁game	-9.56966
▁2019	-9.57008
▁algorithms	-9.5715
▁cases	-9.57185
▁eight	-9.57212
lock	-9.57216
▁killed	-9.57284
ug	-9.5735
▁Since	-9.5735
राज	-9.57444
र्क	-9.57473
▁spec	-9.575
▁Semitic	-9.57571
▁influenced	-9.57618
▁share	-9.5763
ूर	-9.57635
▁cor	-9.57656
▁gr	-9.57766
▁संबंध	-9.57856
X	-9.57868
▁literature	-9.57909
▁potential	-9.57909
▁Science	-9.57909
▁contrast	-9.57909
▁2008	-9.57913
▁weak	-9.57957
ट्र	-9.57996
▁derived	-9.581
bility	-9.58214
▁concern	-9.58326
▁continue	-9.58461
▁mainly	-9.58476
▁methods	-9.58494
▁वैज्ञानिक	-9.585
▁old	-9.58604
med	-9.5861
don	-9.58617
▁(1	-9.58639
▁placed	-9.58804
▁effects	-9.58816
▁multi	-9.5886
▁रचना	-9.58871
▁2013	-9.589
▁division	-9.58907
ंट	-9.58945
▁put	-9.58987
▁करती	-9.59047
▁Bar	-9.59066
bl	-9.59205
uff	-9.59208
75	-9.59216
▁source	-9.59367
44	-9.59443
rap	-9.59524
हर	-9.59582
▁move	-9.5969
▁active	-9.59739
्ड	-9.59784
▁Its	-9.59821
▁offer	-9.5983
▁Society	-9.59841
▁abacus	-9.59841
▁ज्ञान	-9.59842
▁information	-9.59843
▁multiple	-9.59853
▁collection	-9.5995
्‍य	-9.5995
▁divided	-9.59996
यु	-9.60261
▁member	-9.60361
▁months	-9.6039
▁Pre	-9.60399
▁create	-9.60414
24	-9.60474
▁seem	-9.60518
▁cap	-9.60719
▁mu	-9.60774
▁Ko	-9.60779
▁Catholic	-9.60822
▁प्रसिद्ध	-9.60822
▁बिहार	-9.60834
ably	-9.60855
49	-9.60987
40	-9.61107
▁गीत	-9.61373
▁dialects	-9.61376
▁गंगा	-9.61431
▁Afghan	-9.6146
न्य	-9.61467
▁ना	-9.61504
▁Paris	-9.61534
ki	-9.617
एस	-9.61797
▁observation	-9.61812
▁depict	-9.61812
▁weight	-9.6182
▁difference	-9.61827
▁towards	-9.61897
ode	-9.619
kin	-9.6196
▁Mac	-9.62136
lain	-9.62183
ski	-9.62216
्ग	-9.62241
▁performed	-9.62253
▁commonly	-9.62581
▁eastern	-9.6259
▁branch	-9.62653
▁definition	-9.62812
▁mountain	-9.62812
▁primarily	-9.62812
▁probably	-9.62812
▁दिल्ली	-9.62812
▁महत्वपूर्ण	-9.62812
▁राजधानी	-9.62812
▁Kingdom	-9.62812
▁once	-9.62813
▁frog	-9.62813
▁patent	-9.62813
▁indicate	-9.62815
▁brought	-9.62816
▁Charles	-9.62822
▁display	-9.62825
34	-9.62826
▁जन्म	-9.62829
सि	-9.62834
▁par	-9.62864
▁Tra	-9.62869
▁founded	-9.62876
▁planet	-9.62901
During	-9.62922
ियाँ	-9.62953
राष्ट्रीय	-9.62962
▁today	-9.62987
▁working	-9.6317
▁पश्चिम	-9.63246
▁पार	-9.63294
▁uses	-9.6341
BC	-9.63436
▁animal	-9.6348
ृत	-9.63495
▁reach	-9.63499
ich	-9.63553
▁whom	-9.63665
ken	-9.63716
▁care	-9.63819
▁Greece	-9.63822
▁Muslim	-9.63822
▁psychology	-9.63822
▁दौरान	-9.63822
▁sodium	-9.63822
▁look	-9.63847
▁loss	-9.63861
▁flow	-9.63938
According	-9.63959
▁Lu	-9.64016
▁ideas	-9.64117
78	-9.64249
▁entire	-9.64601
यो	-9.64746
▁व्यक्ति	-9.64837
▁Turkey	-9.64842
▁society	-9.64842
▁machine	-9.64842
▁might	-9.64842
▁Robert	-9.64843
▁presence	-9.64845
▁super	-9.64847
▁केन्द्र	-9.64853
▁road	-9.64857
▁उसके	-9.64862
▁deep	-9.64882
यी	-9.64893
▁born	-9.64903
▁चौ	-9.64956
▁pair	-9.64966
▁Their	-9.6498
▁rise	-9.6509
rank	-9.65143
▁served	-9.65237
▁treatment	-9.65311
▁idea	-9.6539
▁reading	-9.6544
▁describe	-9.65464
pan	-9.65524
▁केरल	-9.65569
▁मो	-9.65584
▁Sun	-9.65598
▁हिन्दू	-9.656
रिया	-9.65614
emb	-9.65675
At	-9.65692
▁शासन	-9.65723
ina	-9.65729
35	-9.65741
▁protect	-9.65774
▁Asian	-9.65796
▁beginning	-9.6588
▁Alex	-9.65935
▁observed	-9.65948
ड़ी	-9.65965
▁Portuguese	-9.66045
भाषा	-9.66071
रूप	-9.66074
berg	-9.66099
▁career	-9.66207
col	-9.66294
▁bar	-9.66341
ीकरण	-9.66402
▁greater	-9.66404
0 	-9.66511
▁directed	-9.66593
▁too	-9.6665
▁full	-9.66697
तम	-9.66725
▁contains	-9.66872
▁Thomas	-9.66915
▁potassium	-9.66915
▁Eastern	-9.66916
▁Spain	-9.66916
▁James	-9.66917
▁Constitution	-9.66923
▁root	-9.66925
▁बदल	-9.6693
▁2022	-9.6694
burg	-9.66991
▁verb	-9.67053
▁king	-9.67087
▁replaced	-9.67089
ivity	-9.67107
▁appear	-9.67153
धि	-9.67208
▁चल	-9.6724
स्ता	-9.67316
▁require	-9.67504
most	-9.67513
km	-9.67633
3%	-9.67634
▁allowed	-9.67744
ग्	-9.67764
ियन	-9.67799
▁complete	-9.679
मन	-9.67902
▁Film	-9.67912
▁Middle	-9.67967
▁properties	-9.67967
▁business	-9.67968
▁enough	-9.67968
▁अलावा	-9.67968
▁sense	-9.67971
▁उच्च	-9.67977
द्य	-9.68103
▁pay	-9.68115
▁amphibians	-9.68116
AN	-9.68135
▁nor	-9.68185
▁whole	-9.68265
▁added	-9.68328
भाव	-9.68418
▁defeat	-9.68492
1)	-9.68628
▁serve	-9.68642
टर	-9.68683
22	-9.68729
▁chemical	-9.68782
▁occur	-9.68797
ब्र	-9.68852
▁दी	-9.68889
▁Fort	-9.68967
▁मन	-9.6897
▁History	-9.6903
▁Standard	-9.69031
▁स्थापना	-9.69031
▁wife	-9.69032
▁Gulf	-9.69032
▁जबकि	-9.69043
▁2001	-9.69056
▁2002	-9.69056
▁cannot	-9.69103
▁models	-9.6919
▁Awards	-9.69218
▁Award	-9.69322
▁Algerian	-9.69442
uch	-9.6953
▁get	-9.69591
ati	-9.69678
▁सिंह	-9.69693
car	-9.69724
▁ch	-9.69836
▁सन्	-9.69846
▁treat	-9.69853
▁पि	-9.69859
▁compounds	-9.69917
▁साम	-9.69988
▁names	-9.70037
▁speech	-9.70107
▁शुरू	-9.70107
▁Chinese	-9.70107
▁David	-9.70107
▁Ocean	-9.70107
▁mouth	-9.70118
▁latter	-9.70123
▁House	-9.70129
▁विचार	-9.70133
▁astronauts	-9.7017
अर्थशास्त्र	-9.70251
▁hard	-9.70296
▁2,	-9.70317
▁released	-9.70344
ino	-9.70442
▁Ri	-9.70506
▁degree	-9.70514
ili	-9.70522
▁जल	-9.7075
23	-9.70815
Ar	-9.70835
teen	-9.70969
▁अन	-9.70989
ker	-9.70992
▁क्षेत्रों	-9.71149
era	-9.71169
▁Fo	-9.71193
▁Confederacy	-9.71194
▁purpose	-9.71194
▁response	-9.71194
▁thousand	-9.71194
▁स्थापित	-9.71194
▁करोड़	-9.71194
▁अपना	-9.71196
▁2003	-9.71216
▁branches	-9.71366
▁But	-9.71368
mission	-9.71554
hr	-9.71561
▁अंग्रेजी	-9.71605
▁Attila	-9.71605
हन	-9.71617
▁अब	-9.71631
▁appeared	-9.71758
▁nearly	-9.71762
मु	-9.71852
▁you	-9.71898
▁रह	-9.71916
org	-9.71928
▁Pri	-9.71947
ेट	-9.72009
▁effective	-9.72172
arian	-9.72227
युक्त	-9.72246
इस	-9.72264
▁argument	-9.72292
▁दुनिया	-9.72292
▁detail	-9.72293
▁Northern	-9.72296
▁video	-9.72304
▁summer	-9.72306
▁संस्थान	-9.72359
▁red	-9.72384
76	-9.72527
▁जय	-9.72597
▁कोश	-9.72802
▁defeated	-9.72856
▁ever	-9.72903
head	-9.72939
ram	-9.72942
▁win	-9.73
नगर	-9.73094
▁भूमि	-9.73157
isation	-9.73166
▁राज्यों	-9.73286
▁Bi	-9.73363
▁Council	-9.73404
▁broad	-9.73404
▁Black	-9.73404
▁NASA	-9.73412
▁समझ	-9.73416
iz	-9.7342
ः	-9.73422
▁कहते	-9.73428
▁गयी	-9.73433
▁characteristic	-9.73436
tar	-9.73444
▁सीमा	-9.73448
▁लगा	-9.73464
निर्	-9.73486
▁atomic	-9.73488
▁conditions	-9.73503
sure	-9.73527
▁issues	-9.73592
cular	-9.73669
▁training	-9.73792
झ	-9.73837
▁Q	-9.73863
कों	-9.74005
jo	-9.74062
izing	-9.74072
▁female	-9.74162
चार	-9.74276
gh	-9.74308
▁document	-9.74486
ı	-9.74527
▁First	-9.74528
▁soldiers	-9.74528
▁Royal	-9.74529
▁cross	-9.74531
▁basic	-9.74542
▁matter	-9.74551
▁Shah	-9.74551
▁बड़ी	-9.74572
▁moral	-9.74574
▁1999	-9.7459
▁exception	-9.74615
ल्प	-9.74668
कु	-9.74677
▁TV	-9.7472
46	-9.74794
ंज	-9.74816
▁adopted	-9.74881
सन	-9.74935
पूर्व	-9.75023
▁originally	-9.7507
▁Qu	-9.75093
▁राम	-9.75148
▁shown	-9.75154
▁draw	-9.75211
?	-9.75217
matic	-9.75418
▁likely	-9.75507
▁इं	-9.75522
▁मत	-9.75555
▁rock	-9.75627
▁Revolution	-9.75647
▁Philip	-9.75663
▁Virginia	-9.75663
▁favor	-9.75663
▁ऐतिहासिक	-9.75663
−	-9.75664
▁regular	-9.75664
▁Church	-9.75664
▁status	-9.75666
वंश	-9.75678
▁native	-9.75714
5%	-9.75717
▁लिया	-9.75757
▁fund	-9.75798
▁contain	-9.75829
▁22	-9.7583
39	-9.75931
दु	-9.76017
▁60	-9.76103
Li	-9.76116
▁launched	-9.7619
▁देशों	-9.76234
▁slaves	-9.76289
प्त	-9.763
▁unit	-9.76319
26	-9.76444
ire	-9.76699
▁Dr	-9.76701
▁Cha	-9.76742
▁Continental	-9.76813
▁community	-9.76813
▁caesium	-9.76813
▁behind	-9.76813
▁decided	-9.76813
▁edition	-9.76813
▁future	-9.76814
▁जिसे	-9.76815
▁story	-9.76819
▁बड़े	-9.76836
▁match	-9.76843
▁hours	-9.76862
▁bank	-9.76868
▁victory	-9.76908
▁हम	-9.76984
▁पश्चिमी	-9.77017
▁पुस्तक	-9.77039
64	-9.77073
ever	-9.77164
▁involved	-9.77182
▁party	-9.77198
quality	-9.77357
▁played	-9.77364
▁humans	-9.77406
99	-9.77567
▁asphalt	-9.77598
िर	-9.77706
▁break	-9.77844
▁Space	-9.77882
my	-9.77884
▁साम्राज्य	-9.77976
▁Company	-9.77976
▁Mediterranean	-9.77976
▁museum	-9.77976
▁peace	-9.77976
▁distance	-9.77976
▁square	-9.77976
▁distinguish	-9.78049
▁books	-9.78067
▁अव	-9.78093
▁BCE	-9.781
▁fire	-9.78191
▁appears	-9.78244
bel	-9.78257
स्क	-9.78272
▁If	-9.78277
▁पूर्वी	-9.78416
ेन	-9.78418
De	-9.78473
▁सो	-9.78487
42	-9.78489
▁length	-9.78523
▁launch	-9.7861
गत	-9.78654
शु	-9.78729
gy	-9.78782
CO	-9.78807
ोल	-9.78833
▁say	-9.78859
▁26	-9.78934
▁From	-9.78984
▁Can	-9.79093
▁obtain	-9.79152
▁territories	-9.79152
▁माध्यम	-9.79152
▁question	-9.79152
▁मैदान	-9.79157
▁internal	-9.7916
▁photograph	-9.7916
▁Grant	-9.79192
▁Farm	-9.7921
स्व	-9.79229
▁night	-9.79232
▁वै	-9.79364
▁radio	-9.79411
▁भा	-9.79565
▁Turkish	-9.79706
▁सह	-9.79793
gal	-9.79928
He	-9.79963
▁पु	-9.7999
79	-9.80065
▁शास्त्र	-9.80065
▁Azerbaijani	-9.80086
▁historical	-9.80195
▁already	-9.80343
▁district	-9.80343
▁क्योंकि	-9.80343
▁निर्यात	-9.80343
▁सकते	-9.80343
▁Center	-9.80347
oid	-9.80357
▁tree	-9.80367
roid	-9.80396
आर	-9.80397
त्रि	-9.80421
rian	-9.80448
▁vary	-9.80452
29	-9.80481
▁write	-9.80487
▁technique	-9.80557
phon	-9.80621
र्थ	-9.80779
▁semi	-9.8082
▁points	-9.80841
▁Austroasiatic	-9.80903
85	-9.80906
▁islands	-9.80998
not	-9.81037
27	-9.81193
uk	-9.81338
▁services	-9.81357
▁Hu	-9.81446
▁Library	-9.81547
▁Netherlands	-9.81547
▁citizen	-9.81547
▁varieties	-9.81547
▁ब्रिटिश	-9.81547
▁Group	-9.81548
▁basis	-9.8155
▁construction	-9.8155
▁winter	-9.81611
▁सदी	-9.81629
▁चित्र	-9.81667
▁critic	-9.81698
▁Andy	-9.81839
▁better	-9.8185
▁sport	-9.8187
▁resulting	-9.81968
▁stated	-9.81985
zi	-9.81992
▁ASCII	-9.82041
न्न	-9.82131
▁maintain	-9.82223
▁Germany	-9.82253
▁plants	-9.82254
▁perform	-9.8226
मुख	-9.82262
▁झ	-9.82278
ney	-9.82408
▁lithium	-9.82408
▁claimed	-9.82514
राम	-9.82529
▁operations	-9.82532
▁para	-9.8255
▁भू	-9.82551
▁courts	-9.82663
char	-9.82708
▁बोल	-9.82714
▁गेंद	-9.82765
▁distribution	-9.82767
▁अतिरिक्त	-9.82767
▁School	-9.82767
▁weeks	-9.82768
▁classification	-9.8278
▁कभी	-9.8279
▁sector	-9.8282
▁वाला	-9.8286
विद्या	-9.82862
▁greatest	-9.82896
▁(),	-9.82932
▁failed	-9.82951
▁Ben	-9.82965
▁captured	-9.82981
▁below	-9.83053
्ल	-9.83238
▁values	-9.83264
 –	-9.83287
cus	-9.83319
pre	-9.83337
▁resulted	-9.83389
▁Lee	-9.83397
▁Er	-9.83522
billion	-9.83551
▁advance	-9.83591
▁argue	-9.83592
fu	-9.83735
ूल	-9.83758
▁previous	-9.83759
▁काम	-9.83801
▁transport	-9.83935
डा	-9.83978
▁England	-9.84002
▁Hindu	-9.84002
▁visual	-9.84003
▁demand	-9.84004
▁brother	-9.84009
▁जिला	-9.84009
▁hero	-9.84031
▁centre	-9.84045
मंडल	-9.84081
▁compared	-9.84086
▁Proto	-9.84108
खा	-9.84117
▁पास	-9.84147
▁Mississippi	-9.84357
▁argued	-9.84414
▁वर्तमान	-9.84508
fl	-9.84509
▁Islamic	-9.84572
mat	-9.84617
which	-9.84853
▁सर	-9.84894
▁environment	-9.84997
▁annual	-9.85009
िव	-9.85144
ically	-9.85158
शी	-9.8517
▁California	-9.85252
▁Ottoman	-9.85252
▁anatomy	-9.85252
▁knowledge	-9.85252
▁settlement	-9.85252
▁सामाजिक	-9.85252
▁federal	-9.85252
▁प्रतिशत	-9.85252
▁simple	-9.85252
▁Berber	-9.85252
▁prior	-9.85254
▁लाख	-9.85259
▁color	-9.85266
▁property	-9.85266
▁painting	-9.85274
▁kind	-9.85278
▁अरब	-9.85281
▁Hy	-9.85356
▁राजा	-9.85461
▁वर्ण	-9.85573
▁etc	-9.85604
▁additional	-9.85789
▁presented	-9.85839
▁refer	-9.85839
▁27	-9.85841
▁Ku	-9.859
wood	-9.85917
▁Ver	-9.85959
72	-9.8598
▁via	-9.86053
▁develop	-9.86062
▁our	-9.86093
▁cut	-9.86127
▁Tu	-9.86133
▁वर्णन	-9.86213
writer	-9.86242
▁critical	-9.86284
▁Russia	-9.86291
foot	-9.86417
74	-9.86499
▁vehicle	-9.86517
▁अनुसंधान	-9.86517
▁Association	-9.86517
▁Texas	-9.86517
▁broadcast	-9.86518
▁therefore	-9.86518
▁युद्ध	-9.86518
▁जिसका	-9.86518
▁वर्ग	-9.86518
▁robot	-9.86518
▁Zeus	-9.86518
▁promote	-9.86522
▁taking	-9.86522
▁टीम	-9.86526
▁predict	-9.86534
▁उनकी	-9.86534
▁reference	-9.86541
▁performance	-9.86549
▁artist	-9.86587
▁oldest	-9.8659
▁students	-9.86698
▁station	-9.8674
more	-9.86748
नाथ	-9.86777
87	-9.86852
▁levels	-9.86852
▁election	-9.86965
room	-9.8697
▁ended	-9.86973
ctive	-9.87027
िश	-9.87068
▁खा	-9.87072
▁fight	-9.87317
▁bring	-9.87386
▁involve	-9.87391
Under	-9.87402
इन	-9.87439
▁places	-9.87448
▁काव्य	-9.87527
▁लोक	-9.87531
8)	-9.87549
शाह	-9.87596
type	-9.87715
▁altruism	-9.87799
▁composed	-9.87799
▁earliest	-9.87799
▁resources	-9.87799
▁सदस्य	-9.87799
▁जिले	-9.878
▁contact	-9.878
▁address	-9.878
▁पर्वत	-9.87801
▁defend	-9.87801
▁burn	-9.87809
▁explain	-9.8781
Con	-9.88003
▁Armstrong	-9.8813
▁scientific	-9.8813
▁Articles	-9.88286
▁factor	-9.88322
ographic	-9.88327
▁motion	-9.88427
45	-9.88643
▁forced	-9.88647
▁supported	-9.88677
▁King	-9.88701
ान्त	-9.88724
▁efforts	-9.88758
Animal	-9.88793
Apollo	-9.88799
कोश	-9.88852
▁पी	-9.88853
▁makes	-9.89077
▁Home	-9.8909
▁bodies	-9.89098
▁दृष्टि	-9.89098
▁aspect	-9.89099
▁avoid	-9.891
▁मै	-9.89125
▁atoms	-9.89128
▁स्तर	-9.89128
▁export	-9.89169
▁decades	-9.89192
pper	-9.89203
▁Party	-9.89258
▁initially	-9.89278
89	-9.89295
7%	-9.89313
▁Han	-9.8933
▁सॉफ्टवेयर	-9.89355
▁philosophers	-9.89502
▁trial	-9.89577
▁vowel	-9.89645
▁व्यवस्था	-9.8971
▁शब्दों	-9.89716
cut	-9.89746
65	-9.89832
▁relations	-9.89839
▁epi	-9.89867
6%	-9.89935
▁कह	-9.89945
▁turned	-9.89987
▁उत्तरी	-9.90004
▁aid	-9.90079
Other	-9.9015
▁संघ	-9.90197
र्ड	-9.90208
▁longer	-9.90274
▁engineer	-9.9038
▁dedicated	-9.90414
▁professional	-9.90414
▁ocean	-9.90414
▁Navy	-9.90414
▁honor	-9.90415
▁movie	-9.90417
▁Time	-9.90429
▁worldwide	-9.90433
रेखा	-9.90434
▁price	-9.9045
▁लेकर	-9.90455
▁content	-9.90472
af	-9.90517
▁slow	-9.90592
aging	-9.90645
fr	-9.90688
▁$1	-9.9071
▁Inter	-9.90796
▁हि	-9.90932
right	-9.90958
जे	-9.9096
▁slave	-9.9097
cid	-9.91065
▁my	-9.91171
▁remain	-9.91325
▁represented	-9.91329
▁face	-9.91347
▁signed	-9.91366
▁needed	-9.91381
क्स	-9.91454
▁deal	-9.91577
▁देख	-9.91602
▁१०	-9.91687
▁units	-9.91714
▁screen	-9.9174
▁activities	-9.91747
▁challenge	-9.91747
▁essential	-9.91747
▁industrial	-9.91747
▁अधिकांश	-9.91747
▁धार्मिक	-9.91747
▁ethnic	-9.91747
▁woman	-9.91748
▁Henry	-9.91749
▁2004	-9.91751
▁attend	-9.91767
▁1861	-9.91786
▁classical	-9.91837
▁writers	-9.91874
▁पक्ष	-9.91933
now	-9.91953
▁cat	-9.92052
▁बै	-9.92061
▁joined	-9.92111
▁सेवा	-9.92176
▁goal	-9.92177
र्न	-9.92252
▁except	-9.92271
▁Classical	-9.9229
यह	-9.92347
53	-9.92408
▁worked	-9.92609
▁28	-9.92674
▁pr	-9.93075
Following	-9.93099
▁appellate	-9.93099
▁communities	-9.93099
▁context	-9.93099
▁आर्थिक	-9.93099
▁County	-9.93099
▁आउट	-9.93099
▁ऐसा	-9.93099
▁carried	-9.931
▁engage	-9.93102
▁urban	-9.93106
▁alchemical	-9.93107
▁Jobs	-9.93107
▁युग	-9.93108
▁disease	-9.93124
▁poor	-9.93138
▁race	-9.93156
▁80	-9.93158
बाग	-9.93158
▁बी	-9.93165
ened	-9.93192
script	-9.93279
▁ago	-9.93352
▁कै	-9.93369
▁Altaic	-9.93398
र्श	-9.93572
▁Canadian	-9.93612
▁Egypt	-9.93647
▁Wi	-9.9367
rm	-9.93839
▁Kh	-9.93968
▁wing	-9.93971
ett	-9.93984
▁गो	-9.94046
96	-9.94066
▁पद	-9.94198
▁artists	-9.94208
lot	-9.94236
गु	-9.94297
field	-9.94309
▁recorded	-9.94316
▁print	-9.94381
▁Columbia	-9.94468
▁amateur	-9.94468
▁concentration	-9.94468
▁equipment	-9.94468
▁magnitude	-9.94468
▁गांधी	-9.94468
▁प्रत्येक	-9.94468
▁विकसित	-9.94468
▁respectively	-9.94469
▁sample	-9.94469
▁समाज	-9.94469
▁pressure	-9.94471
▁creation	-9.94471
▁मनोवैज्ञानिक	-9.94471
ग्रह	-9.94471
▁fuel	-9.94472
▁God	-9.94492
▁occurred	-9.94492
▁contract	-9.94493
▁stop	-9.94494
▁designed	-9.94496
▁appearance	-9.94509
▁asked	-9.94518
▁feed	-9.94544
▁Peter	-9.94576
▁upper	-9.94641
▁nine	-9.94644
▁रखा	-9.94665
पुरा	-9.94681
वार	-9.94831
▁And	-9.94891
▁event	-9.94908
▁whereas	-9.94934
ौर	-9.94988
atory	-9.94988
tel	-9.95006
▁हे	-9.95011
▁count	-9.95102
3)	-9.95195
▁vowels	-9.95275
▁बस	-9.95309
▁regard	-9.95315
▁train	-9.95429
सम्	-9.95452
▁landing	-9.95461
▁consonants	-9.95494
▁श्र	-9.95628
view	-9.95668
Y	-9.95721
▁start	-9.95777
▁Mc	-9.95797
II	-9.95821
▁प्रयागराज	-9.95829
ë	-9.95857
▁ceremony	-9.95857
▁daughter	-9.95857
▁principal	-9.95857
▁ज्यादा	-9.95857
▁Research	-9.95857
▁leave	-9.95857
▁ऐसे	-9.95858
▁नियम	-9.95858
▁album	-9.95858
▁decline	-9.95858
▁fiction	-9.9586
▁रेलवे	-9.95861
▁section	-9.95864
▁Italy	-9.95872
hu	-9.95901
▁1995	-9.95917
▁authority	-9.96
▁devices	-9.96034
▁किए	-9.9606
long	-9.96284
tz	-9.96489
ुक	-9.96515
▁App	-9.96583
▁establish	-9.9667
▁छत्तीसगढ़	-9.96682
▁wind	-9.96805
02	-9.96809
▁Za	-9.96843
other	-9.96914
▁grow	-9.96919
▁opened	-9.96941
▁CE	-9.96967
▁increasing	-9.97023
मि	-9.97049
craft	-9.97126
सन्दर्भ	-9.97266
▁combined	-9.97266
▁despite	-9.97266
▁destroy	-9.97266
▁strength	-9.97266
▁उपलब्ध	-9.97266
▁prominent	-9.97266
▁moving	-9.97267
▁shift	-9.97268
▁true	-9.97268
▁route	-9.97271
▁elected	-9.97295
▁debate	-9.97316
▁risk	-9.97356
▁गान	-9.97397
▁skin	-9.97419
ville	-9.97424
▁श्री	-9.97445
▁expected	-9.97447
▁1950	-9.97451
▁speak	-9.9748
▁spent	-9.9751
mann	-9.97578
भाग	-9.97595
▁Va	-9.97709
▁sl	-9.97771
▁Tri	-9.97826
▁23	-9.97831
21	-9.9789
▁stay	-9.9792
▁1991	-9.97967
▁पे	-9.98092
▁Will	-9.98181
▁elections	-9.98197
▁receive	-9.98286
▁consists	-9.98289
▁suggested	-9.98294
lum	-9.98326
▁अंग	-9.98344
ank	-9.98355
▁achieve	-9.98641
Z	-9.98642
ush	-9.9866
work	-9.98667
▁स्वर	-9.98676
▁child	-9.98692
▁1962	-9.98695
▁serious	-9.98695
▁historian	-9.98696
▁1862	-9.98697
Several	-9.98706
1986	-9.98707
▁philosophical	-9.98708
▁revolution	-9.98712
▁attract	-9.98713
▁सर्व	-9.98722
▁संयुक्त	-9.98732
▁minutes	-9.98752
▁poly	-9.98773
▁yet	-9.98793
Some	-9.98878
▁store	-9.98898
▁proton	-9.98912
▁Over	-9.98948
born	-9.99114
▁Mer	-9.99192
▁Because	-9.99194
शे	-9.99203
▁remaining	-9.99216
▁Ham	-9.99273
▁३	-9.99338
▁बारे	-9.99401
▁ions	-9.99467
▁seek	-9.99493
▁employ	-9.99599
▁producer	-9.9961
िस	-9.99667
▁वन	-9.99703
▁stars	-9.99734
▁reduce	-9.99736
order	-9.99786
▁adapt	-9.99845
ambi	-9.99874
हि	-9.999
▁Ada	-10.0001
ऐ	-10.0014
▁Byzantine	-10.0014
▁Pacific	-10.0014
▁astronomer	-10.0014
▁colonial	-10.0014
▁component	-10.0014
▁hundred	-10.0014
▁molecule	-10.0014
▁उन्हें	-10.0014
▁जहाँ	-10.0014
▁Patriot	-10.0014
▁variation	-10.0014
▁सम्बन्ध	-10.0014
▁Valley	-10.0014
Military	-10.0014
▁blood	-10.0014
History	-10.0015
state	-10.0015
▁chain	-10.0016
direct	-10.0017
▁texts	-10.0018
▁tail	-10.0018
पूर्ण	-10.002
▁declared	-10.0021
▁income	-10.0021
.5%	-10.0026
▁AD	-10.0039
▁standards	-10.0041
rel	-10.0042
▁previously	-10.0043
▁reduced	-10.0056
▁पर्यटन	-10.0056
▁सांस्कृतिक	-10.0056
▁III	-10.0056
पाल	-10.0063
जिस	-10.007
▁completed	-10.0071
▁यूरोप	-10.0075
▁closely	-10.0075
▁यू	-10.0075
▁Ab	-10.0083
app	-10.0105
▁Both	-10.0111
▁शक्ति	-10.0112
▁refers	-10.0112
▁opt	-10.0117
Tele	-10.0119
▁philosopher	-10.0121
▁lines	-10.0121
▁Star	-10.0126
▁Mountains	-10.0146
ios	-10.0152
▁step	-10.0152
▁differ	-10.0153
ulation	-10.0158
fit	-10.016
ऊ	-10.0161
▁variable	-10.0161
▁परंपरा	-10.0161
▁aardvark	-10.0161
▁beyond	-10.0161
▁हिस्सा	-10.0161
▁substance	-10.0161
▁जिसके	-10.0161
▁Oscar	-10.0162
Education	-10.0162
hydro	-10.0162
▁activity	-10.0163
▁money	-10.0163
▁ranked	-10.0164
▁Sal	-10.0166
When	-10.0167
क्षेत्र	-10.0167
▁Em	-10.0179
since	-10.018
▁direction	-10.0181
▁awards	-10.0182
cri	-10.0188
▁appointed	-10.0192
68	-10.0209
▁accepted	-10.0214
▁वर्षों	-10.0215
01	-10.0232
▁soil	-10.0233
ogen	-10.0244
▁operate	-10.0248
▁shape	-10.0248
-19	-10.0249
ियर	-10.0251
▁ऋग्वेद	-10.0267
जर	-10.0284
▁hop	-10.0289
It	-10.0297
▁पूर्ण	-10.0305
द्वीप	-10.031
▁audience	-10.0311
▁extensive	-10.0311
▁heavy	-10.0311
▁pronunciation	-10.0311
▁secret	-10.0311
▁studied	-10.0311
▁telephone	-10.0311
▁telescope	-10.0311
▁बौद्ध	-10.0311
▁implement	-10.0311
▁revenue	-10.0311
▁green	-10.0311
▁गेंदबाज	-10.0311
▁correct	-10.0311
▁Afroasiatic	-10.0312
▁constitute	-10.0313
▁agreement	-10.0314
▁auto	-10.0319
▁cells	-10.0329
▁governor	-10.0331
▁fast	-10.0338
▁occurs	-10.0338
▁rejected	-10.0339
▁आते	-10.0345
tron	-10.0349
▁fighting	-10.0368
Languages	-10.0375
▁finally	-10.0387
▁accept	-10.0408
▁33	-10.041
▁(3	-10.0414
▁believe	-10.0421
▁sales	-10.0426
▁बात	-10.0433
95	-10.0437
▁notable	-10.0437
▁Human	-10.0459
▁Kentucky	-10.0462
▁Supreme	-10.0462
▁प्रौद्योगिकी	-10.0462
▁Napoleon	-10.0462
▁Tennessee	-10.0462
▁Angeles	-10.0462
▁Second	-10.0462
▁लिखा	-10.0462
▁adult	-10.0462
▁chief	-10.0462
▁essay	-10.0462
▁Italian	-10.0462
▁think	-10.0462
▁उत्पाद	-10.0462
▁१५	-10.0463
▁wave	-10.0463
▁समान	-10.0464
Notes	-10.0465
▁stone	-10.0465
▁ऑस्ट्रेलियाई	-10.0467
▁establishment	-10.0468
▁1968	-10.0469
▁expression	-10.0469
▁Bank	-10.0469
▁parent	-10.0476
Q	-10.0476
▁forests	-10.0477
▁Modern	-10.0482
▁विधि	-10.0489
▁29	-10.0498
ara	-10.0503
▁35	-10.0509
▁billion	-10.0511
▁रन	-10.0517
prop	-10.0534
▁ending	-10.0536
पन	-10.055
ल्ल	-10.055
▁offered	-10.0551
▁दर्शन	-10.0552
term	-10.0553
▁limit	-10.0563
AT	-10.0569
▁eyes	-10.0572
well	-10.0573
गण	-10.0576
ोप	-10.058
▁containing	-10.0594
▁Nor	-10.0601
▁depend	-10.0607
▁Shi	-10.0611
-1	-10.0614
▁Turkic	-10.0616
▁mathematics	-10.0616
▁possibly	-10.0616
▁recognized	-10.0616
▁जहां	-10.0616
▁भगवान	-10.0616
▁benefit	-10.0616
▁practical	-10.0616
▁1998	-10.0616
▁reserve	-10.0616
▁यदि	-10.0616
▁स्पष्ट	-10.0617
▁becoming	-10.0617
▁instance	-10.0617
म्प	-10.0618
▁trace	-10.0619
▁फिर	-10.0619
▁Bay	-10.0621
▁rare	-10.0624
▁High	-10.0628
uth	-10.063
▁belong	-10.0638
▁board	-10.0639
5 	-10.0645
▁completely	-10.0652
▁तट	-10.0666
▁growing	-10.067
▁कृष्ण	-10.0674
▁Je	-10.0678
दान	-10.0685
aff	-10.0689
▁वैदिक	-10.0698
▁आप	-10.0699
▁issue	-10.0711
▁kill	-10.0725
▁Another	-10.0759
▁enter	-10.076
▁दूर	-10.076
construct	-10.077
औ	-10.0772
á	-10.0772
▁Asparagales	-10.0772
▁College	-10.0772
▁journal	-10.0772
▁liquid	-10.0772
▁situation	-10.0772
▁ग्रंथ	-10.0772
ç	-10.0772
í	-10.0772
▁brief	-10.0772
▁studio	-10.0772
▁ध्यान	-10.0772
▁1969	-10.0772
▁White	-10.0772
▁आईटी	-10.0772
▁विशाल	-10.0772
▁retain	-10.0773
▁न्यू	-10.0773
▁lift	-10.0773
▁digital	-10.0774
▁transfer	-10.0775
▁profit	-10.0776
▁1996	-10.078
▁agent	-10.0781
▁formation	-10.0791
▁convention	-10.0794
▁बोली	-10.0795
▁notes	-10.0795
$	-10.0795
From	-10.0796
[	-10.0797
जर्मनी	-10.0798
▁agreed	-10.0799
house	-10.0805
water	-10.0816
▁done	-10.0817
▁ships	-10.0823
cker	-10.0837
print	-10.0838
▁शिव	-10.0839
▁shared	-10.0842
▁Day	-10.0846
Di	-10.0853
▁32	-10.0859
▁publish	-10.0877
▁fourth	-10.0882
71	-10.0884
▁lived	-10.0909
▁device	-10.0911
such	-10.0916
▁crops	-10.0918
▁keep	-10.0928
झारखण्ड	-10.0931
▁colonies	-10.0931
▁negative	-10.0931
▁जिनमें	-10.0931
▁समुद्र	-10.0931
▁animated	-10.0931
▁add	-10.0931
▁Orwell	-10.0932
▁things	-10.0933
Ch	-10.0935
▁प्रकाशित	-10.0935
▁1997	-10.0936
▁Macedonian	-10.0938
▁shot	-10.094
▁photo	-10.0943
ette	-10.0944
००	-10.0947
▁partner	-10.0949
Health	-10.0952
grade	-10.0953
▁camera	-10.0955
Further	-10.0959
With	-10.0961
Einstein	-10.0961
eastern	-10.0962
▁Paul	-10.0965
▁उदाहरण	-10.0977
▁entered	-10.0986
pit	-10.0993
▁Vol	-10.0996
▁हिमाचल	-10.1011
Music	-10.1012
▁soon	-10.1025
Cl	-10.1032
▁hot	-10.1032
▁factors	-10.1035
▁gain	-10.1041
ियां	-10.1041
▁fo	-10.1043
▁pur	-10.1051
▁changed	-10.1061
▁know	-10.1071
aving	-10.1078
▁communication	-10.1092
▁financial	-10.1092
▁pattern	-10.1092
▁procedure	-10.1092
▁sequence	-10.1092
▁वृद्धि	-10.1092
▁Kabul	-10.1092
▁applied	-10.1092
▁intellectual	-10.1093
▁१८	-10.1093
▁proceed	-10.1093
▁Old	-10.1093
▁particle	-10.1093
▁sexual	-10.1093
east	-10.1094
▁अंत	-10.1095
▁consistent	-10.1097
▁assistive	-10.1098
▁camp	-10.11
▁opposed	-10.1101
▁नव	-10.1101
▁arrived	-10.1102
▁अं	-10.1103
▁Nations	-10.1104
▁abandoned	-10.1108
NA	-10.1111
▁किये	-10.1112
्फ	-10.1116
▁उसे	-10.1117
▁told	-10.1118
▁reform	-10.1122
▁Iran	-10.1123
▁क्रम	-10.1123
▁ideal	-10.1128
एम	-10.113
▁गति	-10.1134
▁wanted	-10.1135
▁डाल	-10.1137
▁older	-10.1139
▁condition	-10.1149
▁mono	-10.1157
▁officially	-10.1158
▁Despite	-10.1169
09	-10.1187
▁sum	-10.1205
▁My	-10.1206
दू	-10.1208
▁scientists	-10.1216
▁relative	-10.1232
▁तब	-10.1241
▁import	-10.1252
▁साल	-10.1254
इन्हें	-10.1256
▁academic	-10.1256
▁contemporary	-10.1256
▁medieval	-10.1256
▁quickly	-10.1256
▁surrender	-10.1256
▁किलोमीटर	-10.1256
▁दूसरे	-10.1256
▁पृथ्वी	-10.1256
▁मुस्लिम	-10.1256
▁description	-10.1256
▁Aldrin	-10.1256
▁intended	-10.1256
▁census	-10.1256
▁rural	-10.1257
Member	-10.1258
▁exchange	-10.1258
▁fear	-10.1258
▁Grand	-10.1263
over	-10.1266
▁layer	-10.1267
▁award	-10.1268
▁दिन	-10.1269
▁manufacturer	-10.1272
Ro	-10.1273
शास्त्र	-10.1274
▁safe	-10.1277
▁alter	-10.1281
▁band	-10.1284
▁determined	-10.1285
▁Later	-10.1291
▁meeting	-10.1294
संस्कृत	-10.1297
–20	-10.1301
▁बु	-10.1302
related	-10.1303
▁भौगोलिक	-10.1304
▁Wil	-10.1309
Le	-10.131
▁advanced	-10.1311
book	-10.1322
▁Early	-10.1323
▁significantly	-10.1323
भिन्न	-10.1326
▁बल	-10.1331
▁covered	-10.1345
To	-10.1355
▁marked	-10.1355
▁passed	-10.1364
see	-10.1368
▁affect	-10.1368
▁rich	-10.1389
▁attempted	-10.1393
▁Further	-10.1393
▁disc	-10.1408
astronaut	-10.1413
▁extra	-10.1415
▁यजुर्वेद	-10.1418
▁minor	-10.142
name	-10.1421
▁सिद्धांत	-10.1423
▁Illinois	-10.1423
▁Sampras	-10.1423
▁alternative	-10.1423
▁militia	-10.1423
▁respond	-10.1423
▁चाहिए	-10.1423
▁विकेट	-10.1423
▁respect	-10.1423
▁double	-10.1423
▁reveal	-10.1423
▁legislature	-10.1424
▁cinema	-10.1424
▁पार्क	-10.1425
▁angle	-10.143
▁exact	-10.1431
▁connection	-10.1432
▁diverse	-10.1435
▁अधिकार	-10.1436
▁electric	-10.1438
▁1930	-10.1438
▁assist	-10.1453
umb	-10.1463
with	-10.1471
▁awarded	-10.148
▁recover	-10.1481
▁constitution	-10.1487
▁Aries	-10.1495
boat	-10.1497
ridge	-10.1506
▁Two	-10.1508
▁लेख	-10.1523
arm	-10.1536
▁सौ	-10.1538
▁Korean	-10.1541
▁toward	-10.1544
–18	-10.1544
ntin	-10.1544
urr	-10.155
▁जान	-10.1552
▁subsequent	-10.1568
▁पड़	-10.157
war	-10.1573
▁atom	-10.1575
▁Im	-10.1577
5,000	-10.1579
▁Trans	-10.158
▁बहु	-10.1582
93	-10.159
▁ambiguity	-10.1592
▁hypothesis	-10.1592
▁magazine	-10.1592
▁oxygen	-10.1592
▁तुलना	-10.1592
▁दृष्टिकोण	-10.1592
▁decrease	-10.1592
▁empire	-10.1592
▁survive	-10.1592
▁target	-10.1592
▁conquest	-10.1592
▁invasion	-10.1592
▁giving	-10.1592
▁System	-10.1593
▁identified	-10.1593
▁Delphi	-10.1593
▁salamanders	-10.1593
▁speed	-10.1594
घाट	-10.1594
▁desire	-10.1595
▁transform	-10.1595
▁importance	-10.1596
▁स्वतंत्रता	-10.1596
▁dispute	-10.1596
▁उनका	-10.1597
बांग्लादेश	-10.1597
rich	-10.1598
▁stable	-10.1598
▁criticism	-10.1599
▁Native	-10.1602
▁फै	-10.1606
Anti	-10.1608
▁ZF	-10.161
▁Lake	-10.1611
कालीन	-10.1611
▁UK	-10.1611
test	-10.1614
स्त्र	-10.1634
ओ	-10.1636
पू	-10.1636
uz	-10.1641
▁showed	-10.1642
भूगोल	-10.1645
This	-10.1651
▁Bel	-10.1652
बल	-10.1653
▁coastal	-10.1655
▁31	-10.1676
▁Indo	-10.1678
▁Albert	-10.1679
दर	-10.1684
बाहरी	-10.1688
▁sand	-10.1691
logical	-10.1691
tech	-10.1698
position	-10.1699
▁adopt	-10.1711
▁build	-10.1716
▁drive	-10.172
33	-10.1728
फा	-10.1732
By	-10.1762
▁labor	-10.1764
॰	-10.1765
▁Cushitic	-10.1765
▁aikido	-10.1765
▁easily	-10.1765
▁equivalent	-10.1765
▁network	-10.1765
▁software	-10.1765
dynamic	-10.1765
▁1994	-10.1765
▁credit	-10.1765
Jewish	-10.1765
▁request	-10.1765
▁deliver	-10.1765
▁Chadic	-10.1765
▁grew	-10.1765
▁skill	-10.1765
▁voice	-10.1765
▁failure	-10.1765
▁search	-10.1766
▁sister	-10.1766
▁Prize	-10.1766
▁cult	-10.1766
▁planned	-10.1767
याँ	-10.1768
▁winner	-10.1768
▁institutions	-10.1769
ford	-10.1771
▁immediately	-10.1773
.1%	-10.1773
▁Democratic	-10.1776
▁mind	-10.1776
उपनिषद	-10.178
▁interpretation	-10.1785
ji	-10.1793
▁phone	-10.1795
03	-10.1809
▁meant	-10.1821
▁इस्लाम	-10.1825
▁जाति	-10.1841
We	-10.1863
ttle	-10.1868
tele	-10.1874
Mo	-10.188
▁extend	-10.1886
▁र्	-10.189
▁dog	-10.1897
▁tried	-10.1901
▁Southeast	-10.1902
Me	-10.1902
ische	-10.1907
▁scale	-10.191
▁मिला	-10.1912
▁initial	-10.1917
▁Ancient	-10.1921
roll	-10.1923
pped	-10.1923
▁mouthwash	-10.1924
evolution	-10.1934
इलाहाबाद	-10.194
▁Department	-10.194
▁Loyalist	-10.194
▁Trojan	-10.194
▁combination	-10.194
▁comparison	-10.194
▁jurisdiction	-10.194
▁technical	-10.194
▁पार्टी	-10.194
▁विद्रोह	-10.194
▁council	-10.194
▁custom	-10.194
▁लोकप्रिय	-10.194
▁borrow	-10.194
▁proportion	-10.194
▁village	-10.194
▁समूह	-10.194
▁murder	-10.194
▁सकती	-10.194
▁स्टेशन	-10.194
▁योगदान	-10.194
▁tribes	-10.1941
▁horse	-10.1941
▁Berlin	-10.1941
▁portion	-10.1942
▁kept	-10.1943
सामवेद	-10.1943
▁vast	-10.1945
▁पशु	-10.1945
▁बनाया	-10.1949
▁tourist	-10.1958
▁moment	-10.1963
▁stand	-10.1963
शील	-10.1965
▁Plan	-10.1965
▁carry	-10.1966
▁crop	-10.1974
onym	-10.1977
▁People	-10.198
▁fully	-10.1982
ट्ट	-10.199
▁developing	-10.2009
▁experimental	-10.2013
inter	-10.2019
▁seat	-10.2043
run	-10.2044
▁farming	-10.2055
हे	-10.2067
ella	-10.2077
ille	-10.2078
▁eggs	-10.2082
speaking	-10.2083
पाद	-10.2091
▁Tre	-10.21
▁ordered	-10.2105
stitution	-10.211
▁festival	-10.2119
▁indigenous	-10.2119
▁necessary	-10.2119
▁proposal	-10.2119
▁resistance	-10.2119
▁strategy	-10.2119
▁volume	-10.2119
▁प्रशासन	-10.2119
▁इनमें	-10.2119
▁विविध	-10.2119
▁Joseph	-10.2119
perhaps	-10.2119
▁मार्ग	-10.2119
▁church	-10.2119
▁शाखा	-10.2119
▁poem	-10.212
▁solid	-10.212
▁generation	-10.2121
दार	-10.2122
▁2023	-10.2123
▁prefer	-10.2123
▁existence	-10.2127
▁Life	-10.2128
ल्स	-10.2134
▁पत्र	-10.2136
▁von	-10.2153
▁Khan	-10.2155
▁Leto	-10.2156
▁जलवायु	-10.2171
कट	-10.2172
▁ग्रन्थ	-10.2176
meter	-10.2179
▁workers	-10.2182
▁fly	-10.2186
▁Cup	-10.2189
पश्चिम	-10.219
जो	-10.2192
Many	-10.2192
▁sell	-10.2197
Na	-10.2202
▁Gar	-10.2205
▁Par	-10.2225
▁commander	-10.2238
▁allowing	-10.2247
▁inside	-10.2251
life	-10.2255
lav	-10.2271
lag	-10.2273
पति	-10.2277
IS	-10.2288
▁helped	-10.2292
च्छ	-10.23
▁substantial	-10.2301
▁उल्लेख	-10.2301
▁Festival	-10.2301
▁medicine	-10.2301
▁newspaper	-10.2301
▁progress	-10.2301
▁suffix	-10.2301
▁tissue	-10.2301
▁ultimately	-10.2301
▁yield	-10.2301
▁प्रक्रिया	-10.2301
▁यमुना	-10.2301
शुक्ल	-10.2301
▁सूची	-10.2301
▁GDP	-10.2301
▁creating	-10.2301
▁attention	-10.2301
▁producing	-10.2301
▁middle	-10.2301
▁constant	-10.2301
▁legs	-10.2301
▁comment	-10.2302
worth	-10.2305
▁split	-10.2306
कू	-10.2308
▁मात्र	-10.2313
▁प्रभावित	-10.2314
▁setting	-10.2321
▁raised	-10.2324
▁secondary	-10.2327
▁subsequently	-10.2327
▁स्थिति	-10.233
▁link	-10.2332
▁understanding	-10.2333
▁expanded	-10.2337
▁हालाँकि	-10.2342
अप	-10.2357
▁extended	-10.2357
▁regarded	-10.2372
English	-10.2379
▁formula	-10.2382
plane	-10.2396
▁deposits	-10.2416
▁उत्	-10.2421
▁dig	-10.2421
▁pure	-10.2425
No	-10.2433
▁release	-10.2445
▁सेना	-10.2449
▁continent	-10.246
▁possess	-10.2475
राजनीति	-10.2486
राष्‍ट्र	-10.2486
▁Richard	-10.2486
▁Taliban	-10.2486
▁अमेरिका	-10.2486
▁आबादी	-10.2486
▁खिलाड़ी	-10.2486
▁न्यायालय	-10.2486
▁मन्दिर	-10.2486
▁सभ्यता	-10.2486
▁apparent	-10.2486
▁extinct	-10.2486
▁Alfred	-10.2486
▁strike	-10.2486
▁प्रयास	-10.2486
▁belief	-10.2486
▁संगम	-10.2486
▁Georgia	-10.2486
▁Arthur	-10.2486
▁wild	-10.2486
▁Auto	-10.2489
▁genetic	-10.249
▁ईसा	-10.249
▁organized	-10.2492
▁supply	-10.2494
▁संबंधित	-10.2499
▁हाल	-10.25
▁Rock	-10.2501
dependent	-10.2502
▁नाग	-10.2507
morph	-10.2513
action	-10.2516
▁flat	-10.2517
▁LM	-10.2523
▁operation	-10.2524
astic	-10.2526
▁overall	-10.2527
list	-10.2529
▁connected	-10.254
▁Land	-10.2542
▁representation	-10.2543
ाबाद	-10.2546
ाइट	-10.2549
▁currently	-10.2553
wan	-10.2555
▁counter	-10.2556
▁newly	-10.2557
▁चला	-10.2567
European	-10.2572
▁ब्रह्म	-10.2608
▁connect	-10.261
▁online	-10.2614
ought	-10.2617
▁Alien	-10.2626
circ	-10.2633
=	-10.2639
▁govern	-10.2645
stitute	-10.2657
▁regional	-10.2669
ease	-10.267
▁poet	-10.2673
▁encounter	-10.2675
▁neutral	-10.2675
कौटिल्य	-10.2675
▁Carolina	-10.2675
▁category	-10.2675
▁celebrate	-10.2675
▁expansion	-10.2675
▁literary	-10.2675
▁nuclear	-10.2675
▁politics	-10.2675
▁prefix	-10.2675
▁radiation	-10.2675
▁refused	-10.2675
▁rubidium	-10.2675
▁modified	-10.2675
▁variant	-10.2675
▁freedom	-10.2675
▁composition	-10.2675
methyl	-10.2675
▁programming	-10.2675
▁Ancyra	-10.2675
▁राजनीतिक	-10.2675
▁begin	-10.2675
▁leaving	-10.2675
▁Plato	-10.2675
▁frame	-10.2676
▁महाद्वीप	-10.2676
Post	-10.2678
▁मुक्त	-10.2679
▁wound	-10.2685
▁पहली	-10.2685
▁Water	-10.2686
▁snow	-10.2689
▁lowest	-10.269
▁गोवा	-10.2692
▁discovery	-10.2693
▁actually	-10.2697
कारी	-10.271
▁adaptation	-10.2714
सु	-10.2715
▁fell	-10.2716
▁consisting	-10.2721
▁ANOVA	-10.2729
▁Eu	-10.2731
बद्ध	-10.2751
▁जीव	-10.2765
उत्तर	-10.2768
class	-10.2768
▁गाय	-10.2773
last	-10.2789
▁course	-10.2793
ंगे	-10.2833
▁sha	-10.2837
▁conventional	-10.284
▁interpret	-10.2845
97	-10.285
▁forward	-10.2855
बू	-10.2858
▁Caribbean	-10.2867
▁behavior	-10.2867
▁champion	-10.2867
▁introduction	-10.2867
▁module	-10.2867
▁positive	-10.2867
▁पहचान	-10.2867
▁arithmetic	-10.2867
▁Mobile	-10.2867
▁अथवा	-10.2867
▁स्कूल	-10.2867
mechanical	-10.2867
लैंड	-10.2867
▁error	-10.2867
▁invention	-10.2867
▁micro	-10.2867
▁task	-10.2867
▁Boston	-10.2868
▁walk	-10.2868
▁feel	-10.2869
▁chloride	-10.2869
▁operating	-10.287
▁scene	-10.287
▁usage	-10.287
▁emotion	-10.2871
▁motor	-10.2874
chan	-10.2875
▁sought	-10.2877
▁exhibition	-10.2877
▁गये	-10.2877
र्ण	-10.2878
▁सभा	-10.2879
▁removed	-10.2882
▁बनाने	-10.2889
▁extract	-10.289
▁mixed	-10.2896
▁मैच	-10.2898
▁logic	-10.2899
▁mentioned	-10.2915
▁warm	-10.2917
▁consonant	-10.2917
▁effort	-10.2918
▁Sanskrit	-10.2923
चर	-10.2931
▁employed	-10.294
▁Andorran	-10.2941
▁heart	-10.2948
▁statement	-10.2953
▁experienced	-10.2965
idae	-10.2965
Amsterdam	-10.2968
including	-10.2968
group	-10.2969
▁opera	-10.297
from	-10.2974
हिन्दी	-10.2977
▁निकल	-10.2984
aged	-10.2986
▁piece	-10.3
lam	-10.3008
त्मक	-10.302
▁comet	-10.3032
▁extreme	-10.3039
▁exhibit	-10.3052
▁Confederation	-10.3063
▁categories	-10.3063
▁instruction	-10.3063
▁instrument	-10.3063
▁अफ्रीका	-10.3063
▁प्राकृतिक	-10.3063
▁Michael	-10.3063
▁Studies	-10.3063
▁enjoy	-10.3063
▁mineral	-10.3063
▁slightly	-10.3063
▁pronounced	-10.3063
▁geographic	-10.3063
धीरे	-10.3063
▁earth	-10.3063
▁Davis	-10.3063
▁Highway	-10.3064
▁prize	-10.3065
▁तौर	-10.3066
▁दर्ज	-10.3066
▁dark	-10.3066
▁भूमिका	-10.3067
▁प्रदान	-10.3067
▁consist	-10.3068
▁Super	-10.3068
▁fought	-10.3069
▁controlled	-10.3073
▁Armenian	-10.3074
▁1975	-10.3076
▁solar	-10.3078
▁wall	-10.3082
▁iron	-10.3091
▁pain	-10.3092
▁reside	-10.3104
▁proved	-10.3104
▁granted	-10.3107
▁environmental	-10.311
▁linguistic	-10.3114
▁issued	-10.3116
पुरुष	-10.3135
▁eye	-10.3139
OS	-10.314
ij	-10.3142
▁दक्षिणी	-10.3144
टो	-10.3154
इतिहास	-10.3172
power	-10.3174
भी	-10.3179
▁अभि	-10.3181
▁join	-10.3182
राज्य	-10.3185
▁publication	-10.3206
town	-10.3219
▁सार	-10.322
07	-10.3228
▁discuss	-10.3253
ida	-10.3257
Univers	-10.3263
Algorithm	-10.3263
▁Edmonton	-10.3263
▁Hollywood	-10.3263
▁Mexico	-10.3263
▁Pakistan	-10.3263
▁Taggart	-10.3263
▁aesthetic	-10.3263
▁association	-10.3263
▁emphasis	-10.3263
▁surrounding	-10.3263
▁variance	-10.3263
▁महात्मा	-10.3263
▁स्वास्थ्य	-10.3263
▁street	-10.3263
▁weapon	-10.3263
▁मुगल	-10.3263
न्ह	-10.3263
▁पूरे	-10.3263
▁Peace	-10.3263
▁fixed	-10.3263
▁valley	-10.3263
▁Year	-10.3263
▁wealth	-10.3263
▁trend	-10.3263
▁medium	-10.3263
▁काफी	-10.3263
▁Jews	-10.3263
▁felt	-10.3263
▁दशक	-10.3263
capita	-10.3265
▁taught	-10.3265
uck	-10.3266
▁detect	-10.3266
▁Roger	-10.3269
▁specifically	-10.3269
▁powerful	-10.3271
▁आधारित	-10.3277
▁देने	-10.3277
Pro	-10.3278
▁स्थानीय	-10.3279
▁मिलता	-10.3286
▁extremely	-10.3288
▁notably	-10.329
▁continental	-10.329
▁Thus	-10.3297
chemistry	-10.3298
▁यूनिकोड	-10.3333
▁scholar	-10.3343
ेशन	-10.335
▁strongly	-10.3351
▁maintained	-10.3353
One	-10.3356
▁...	-10.338
Although	-10.338
Audi	-10.3381
motion	-10.3425
▁derive	-10.3428
▁bus	-10.3429
▁want	-10.3437
▁Hall	-10.3446
▁Democrat	-10.3454
Ex	-10.3455
▁domestic	-10.3462
लाहौर	-10.3467
▁Anchorage	-10.3467
▁League	-10.3467
▁Minister	-10.3467
▁Parliament	-10.3467
▁Technology	-10.3467
▁contribution	-10.3467
▁executive	-10.3467
▁football	-10.3467
▁heavily	-10.3467
▁influential	-10.3467
▁teaching	-10.3467
▁segment	-10.3467
Aberdeenshire	-10.3467
▁column	-10.3467
▁नदियों	-10.3467
▁unique	-10.3467
▁Picture	-10.3467
▁ऊपर	-10.3467
▁prime	-10.3467
▁intention	-10.3467
▁severe	-10.3468
▁restrict	-10.3468
▁Championship	-10.3468
▁earn	-10.347
▁winning	-10.347
▁classified	-10.347
▁republic	-10.3471
▁rivalry	-10.3472
▁यूरोपीय	-10.3472
▁master	-10.3474
▁पहला	-10.3475
▁विद्वानों	-10.3478
▁round	-10.3479
▁Port	-10.3494
Philosophy	-10.3495
▁conducted	-10.351
▁Kant	-10.3522
SC	-10.3525
▁Epi	-10.3538
एक	-10.354
धर्म	-10.3551
▁नामक	-10.3551
▁saying	-10.3552
▁सब	-10.3557
▁concerned	-10.3584
Early	-10.3591
Since	-10.3593
▁वर्षा	-10.3593
मध्य	-10.3593
▁representing	-10.3595
where	-10.3598
▁armed	-10.3599
also	-10.361
▁improve	-10.3629
Mar	-10.3647
▁$2	-10.3652
▁actual	-10.3657
म्भ	-10.3657
बो	-10.3668
एन	-10.3675
ऑ	-10.3675
▁Massachusetts	-10.3675
▁collapse	-10.3675
▁encourage	-10.3675
▁monument	-10.3675
▁उर्दू	-10.3675
▁औसत	-10.3675
▁alcohol	-10.3675
▁permanent	-10.3675
▁understood	-10.3675
▁happen	-10.3675
▁teeth	-10.3675
▁translated	-10.3675
▁portray	-10.3675
▁statue	-10.3675
▁Region	-10.3676
empty	-10.3676
Origin	-10.3676
▁अर्थव्यवस्था	-10.3676
▁Galt	-10.3676
च्च	-10.3677
▁desert	-10.3678
▁Bro	-10.3679
▁protest	-10.3679
ड़े	-10.3681
यजुर्वेदीय	-10.3682
Th	-10.3683
▁interaction	-10.3683
▁suit	-10.3684
▁plot	-10.3688
▁emerged	-10.3691
▁रहता	-10.3692
मंत्र	-10.3699
▁myth	-10.3707
▁increasingly	-10.3711
▁organic	-10.3712
▁आया	-10.3717
hill	-10.372
▁1920	-10.3726
induced	-10.3739
▁depending	-10.3742
▁gained	-10.3746
▁traditionally	-10.3748
▁processes	-10.3753
▁send	-10.3755
metric	-10.3762
▁शहरों	-10.3767
▁जीत	-10.377
▁बाहर	-10.3773
काव्य	-10.3777
कृष्ण	-10.3809
Alexander	-10.3811
ending	-10.3811
साथ	-10.3823
▁डे	-10.3825
मोह	-10.383
iya	-10.3833
यू	-10.3833
▁typical	-10.3864
▁meet	-10.3869
▁Northwest	-10.3874
▁Macedon	-10.3878
▁rival	-10.3884
Agriculture	-10.3888
▁Cambridge	-10.3888
▁Peninsula	-10.3888
▁Portugal	-10.3888
▁discipline	-10.3888
▁fundamental	-10.3888
▁mathematical	-10.3888
▁physics	-10.3888
▁pregnancy	-10.3888
▁relativity	-10.3888
▁simply	-10.3888
▁universal	-10.3888
▁परिवर्तन	-10.3888
▁लिमिटेड	-10.3888
▁व्यापार	-10.3888
▁phrase	-10.3888
▁stream	-10.3888
▁management	-10.3888
▁random	-10.3888
▁settled	-10.3888
▁crude	-10.3888
▁translation	-10.3888
▁अक्षर	-10.3888
▁opposition	-10.3888
wheel	-10.3888
▁causing	-10.3888
▁Smith	-10.3888
▁1863	-10.3888
▁invented	-10.3888
▁खोज	-10.3888
▁हाथ	-10.3888
▁स्वरूप	-10.389
▁belt	-10.3891
▁देखें	-10.3892
▁running	-10.3892
▁representative	-10.3893
भेद	-10.3897
▁frequently	-10.3898
dict	-10.3899
▁spring	-10.3901
▁dominated	-10.3902
▁assumed	-10.3905
▁Str	-10.3905
▁alone	-10.3906
▁सके	-10.3909
▁देता	-10.391
▁graphic	-10.3913
ether	-10.3917
▁होकर	-10.3921
▁500	-10.3929
US	-10.3929
▁taxes	-10.394
ira	-10.3958
▁starting	-10.3972
▁Part	-10.3972
पुरी	-10.3978
▁relation	-10.3981
▁dialect	-10.3983
▁month	-10.3987
▁That	-10.3989
▁bio	-10.4007
▁dead	-10.4017
▁ruler	-10.4018
▁going	-10.4021
▁constitutional	-10.4026
राष्ट्र	-10.4028
लखनऊ	-10.4032
While	-10.4032
▁artistic	-10.4038
▁Scott	-10.4054
▁define	-10.4065
style	-10.4067
▁mention	-10.407
खंड	-10.41
बंध	-10.4103
Between	-10.4105
चिकित्सा	-10.4105
▁Protestant	-10.4105
▁Service	-10.4105
▁confirm	-10.4105
▁external	-10.4105
▁responsible	-10.4105
▁satellite	-10.4105
▁struggle	-10.4105
▁क्षमता	-10.4105
▁छोटे	-10.4105
▁दूसरा	-10.4105
▁योजना	-10.4105
ेश्वर	-10.4105
▁violence	-10.4105
▁Treaty	-10.4105
▁महिला	-10.4105
▁भवन	-10.4106
▁Foundation	-10.4106
▁editor	-10.4106
▁selected	-10.4106
▁पहाड़	-10.4106
▁colour	-10.4106
▁explore	-10.4106
▁blue	-10.4106
▁हिंदी	-10.4106
▁spiritual	-10.4106
▁track	-10.4106
▁broke	-10.4106
▁descent	-10.4107
▁promise	-10.4107
▁convert	-10.4108
▁Baku	-10.4108
▁extent	-10.4111
▁path	-10.4111
▁authorities	-10.4112
▁इनके	-10.4112
▁Revolutionary	-10.4113
▁1971	-10.4115
▁1989	-10.4116
▁beads	-10.4117
▁requirement	-10.4117
▁hunt	-10.412
▁1860	-10.4121
guard	-10.4122
▁करके	-10.4122
▁देखा	-10.4126
▁farmers	-10.4127
▁Ya	-10.4128
▁enable	-10.4134
▁महान	-10.4135
बोध	-10.415
Spec	-10.415
▁आम	-10.4152
▁effectively	-10.4154
▁Tro	-10.416
पंच	-10.4161
▁periodic	-10.4162
polis	-10.418
▁plea	-10.4181
▁dry	-10.4187
चाल	-10.4221
▁लेखक	-10.4233
Andre	-10.4236
शन	-10.4237
१९	-10.4249
known	-10.4255
largest	-10.4258
Schopenhauer	-10.426
Angola	-10.426
Lincoln	-10.426
▁180	-10.4262
▁पो	-10.427
CH	-10.4294
lves	-10.4297
▁solve	-10.4301
▁Development	-10.4328
▁approved	-10.4328
▁consequence	-10.4328
▁escape	-10.4328
▁extension	-10.4328
▁francium	-10.4328
▁iPhone	-10.4328
▁petroleum	-10.4328
▁syllable	-10.4328
▁उच्चारण	-10.4328
▁मनुष्य	-10.4328
▁मानसिक	-10.4328
▁Brazil	-10.4328
conscious	-10.4328
▁आरम्भ	-10.4328
▁purchase	-10.4328
▁picture	-10.4328
▁आगे	-10.4328
▁fifth	-10.4328
▁personnel	-10.4328
Public	-10.4328
Before	-10.4328
▁अन्तर	-10.4329
▁transmission	-10.4329
▁something	-10.433
▁निकट	-10.433
▁drama	-10.4332
▁उसकी	-10.4332
▁civilization	-10.4332
▁peak	-10.4335
▁देते	-10.4336
▁भाषाएँ	-10.4338
▁discussion	-10.4339
▁hair	-10.434
▁Nu	-10.434
▁push	-10.434
▁Johnson	-10.4341
▁Road	-10.4354
▁Steve	-10.4355
▁wear	-10.4356
▁tape	-10.4358
▁Out	-10.4369
▁reader	-10.4372
▁recently	-10.4389
▁successor	-10.4397
▁unable	-10.4398
▁होना	-10.4404
▁Anatolian	-10.4408
▁fine	-10.4424
1%	-10.4425
सूत्र	-10.4427
▁Of	-10.4428
▁file	-10.4429
psycho	-10.4432
Mongolic	-10.4437
यां	-10.4439
▁cast	-10.4453
प्ल	-10.4457
▁क्ल	-10.4458
61	-10.4466
place	-10.4482
Agassi	-10.4492
Warhol	-10.4492
क्रम	-10.4494
▁express	-10.4496
भारतीय	-10.4503
after	-10.4528
▁Mill	-10.4553
▁Abraham	-10.4555
▁Arietis	-10.4555
▁accident	-10.4555
▁constellation	-10.4555
▁quarter	-10.4555
▁societies	-10.4555
▁comprise	-10.4555
▁legend	-10.4555
▁प्रधान	-10.4555
▁स्वयं	-10.4555
▁Control	-10.4555
▁Lewis	-10.4555
▁Internet	-10.4555
▁damage	-10.4555
▁residents	-10.4555
▁जिससे	-10.4555
▁Eagle	-10.4555
▁prison	-10.4555
▁remark	-10.4555
▁मीटर	-10.4555
▁सड़क	-10.4555
▁1992	-10.4555
▁finish	-10.4555
▁Power	-10.4555
▁ruling	-10.4556
▁अवसर	-10.4556
▁zone	-10.4558
▁memory	-10.4558
▁ranking	-10.4558
▁items	-10.456
▁nearby	-10.456
riot	-10.4564
▁bound	-10.4566
▁1976	-10.4568
▁rain	-10.457
400	-10.4571
▁flag	-10.4572
▁proper	-10.4575
▁नए	-10.4579
▁contributed	-10.4588
▁Op	-10.459
▁foundation	-10.4592
▁लाल	-10.4604
hood	-10.4611
वेद	-10.4628
05	-10.4628
▁जाए	-10.4629
IT	-10.4641
▁बनी	-10.4654
▁map	-10.4657
▁contained	-10.4665
▁Char	-10.4672
▁finding	-10.4674
ार्थ	-10.4699
▁discover	-10.4711
▁electro	-10.4726
effect	-10.473
ector	-10.4741
▁capture	-10.4751
भूत	-10.4752
tract	-10.4776
▁regime	-10.4787
▁suppose	-10.4788
▁मृत्यु	-10.4788
efficient	-10.4788
▁Burgess	-10.4788
▁Volkswagen	-10.4788
▁artificial	-10.4788
▁candidate	-10.4788
▁investment	-10.4788
▁poison	-10.4788
▁quantum	-10.4788
▁technologies	-10.4788
▁उद्यान	-10.4788
▁सर्वाधिक	-10.4788
▁सुविधा	-10.4788
▁hydrocarbon	-10.4788
▁married	-10.4788
▁draft	-10.4788
▁ancestor	-10.4788
▁Rearden	-10.4788
▁1984	-10.4788
▁aquatic	-10.4788
▁attested	-10.4788
▁Edward	-10.4788
▁Athens	-10.4788
चन्द्र	-10.4789
▁परिवार	-10.4789
.8%	-10.479
▁hearing	-10.479
▁आर्य	-10.4791
▁विभाग	-10.4792
▁Also	-10.4793
▁unknown	-10.4793
▁निवास	-10.4794
▁proof	-10.4796
▁armies	-10.4798
▁1865	-10.4799
▁brand	-10.4799
▁1987	-10.48
▁1979	-10.48
▁characterized	-10.48
गंज	-10.4806
▁score	-10.4807
▁Troy	-10.4813
▁विशेषता	-10.4819
▁bone	-10.4819
▁नई	-10.4819
Khmer	-10.4822
▁shall	-10.4823
▁bloc	-10.4827
▁linear	-10.4833
▁cold	-10.4835
▁corresponding	-10.4835
▁withdraw	-10.4836
▁historically	-10.4837
▁apply	-10.4857
▁affected	-10.4864
Or	-10.4877
गार	-10.4877
▁soul	-10.4878
national	-10.4884
▁fan	-10.4893
▁खेलों	-10.4893
▁आने	-10.4896
▁Site	-10.4897
▁cool	-10.4902
▁separated	-10.4904
▁Del	-10.491
▁ball	-10.4924
Language	-10.4924
People	-10.4972
Altaic	-10.4973
विज्ञान	-10.4973
वर्ष	-10.4974
language	-10.4974
▁correspond	-10.4975
MP	-10.4976
▁agree	-10.4979
▁determine	-10.4985
२०	-10.4993
िनी	-10.5
▁Para	-10.5008
▁संस्था	-10.5011
श्च	-10.5026
Buddhism	-10.5026
Tungusic	-10.5026
▁Birmingham	-10.5026
▁Independence	-10.5026
▁Province	-10.5026
▁acquired	-10.5026
▁advantage	-10.5026
▁concentrated	-10.5026
▁encompass	-10.5026
▁fragment	-10.5026
▁judge	-10.5026
▁manufacturing	-10.5026
▁secession	-10.5026
▁statistics	-10.5026
▁survey	-10.5026
▁universities	-10.5026
▁widespread	-10.5026
▁इंडिया	-10.5026
▁दूसरी	-10.5026
▁वाराणसी	-10.5026
▁व्यापक	-10.5026
▁संगठन	-10.5026
▁twice	-10.5026
▁बाजार	-10.5026
▁secure	-10.5026
▁police	-10.5026
▁1973	-10.5026
▁1963	-10.5026
▁affair	-10.5026
▁visible	-10.5026
▁reducing	-10.5026
कर्ता	-10.5026
▁१७	-10.5026
▁Command	-10.5026
▁stock	-10.5026
▁job	-10.5027
▁Work	-10.5027
▁interview	-10.5028
▁transmit	-10.5029
▁theorem	-10.503
▁bright	-10.503
▁Huns	-10.5031
▁presidential	-10.5034
▁box	-10.5035
▁1985	-10.5039
Philosophers	-10.5039
▁poll	-10.5039
▁manner	-10.5043
▁originated	-10.5046
न्ध	-10.5048
▁protection	-10.505
▁popularity	-10.5056
▁Even	-10.5069
वादी	-10.5073
▁improved	-10.5073
▁entirely	-10.5083
▁expressed	-10.5083
र्स	-10.5106
▁cycl	-10.5113
▁Bill	-10.5138
IC	-10.5155
▁pop	-10.5169
सन्	-10.5213
self	-10.5214
186	-10.5222
cultural	-10.5224
दक्षिण	-10.5224
Aristotle	-10.5224
German	-10.5224
▁Men	-10.5224
▁grant	-10.5225
Apple	-10.5225
▁जर्मन	-10.5229
gram	-10.5235
▁replace	-10.5239
standing	-10.5248
▁प्रकाश	-10.5248
▁Islam	-10.5257
minute	-10.5261
IN	-10.5261
तंत्र	-10.5269
▁Olympic	-10.527
▁Oxford	-10.527
▁Philadelphia	-10.527
▁Vietnam	-10.527
▁administration	-10.527
▁advocate	-10.527
▁dynasty	-10.527
▁evolved	-10.527
▁expedition	-10.527
▁infrastructure	-10.527
▁marriage	-10.527
▁platform	-10.527
▁stretch	-10.527
▁नेतृत्व	-10.527
▁पवित्र	-10.527
▁रुपये	-10.527
▁श्रेणी	-10.527
▁sleep	-10.527
▁daily	-10.527
▁minister	-10.527
▁normally	-10.527
▁parallel	-10.527
▁जगह	-10.527
▁जनवरी	-10.527
▁विदेशी	-10.527
▁अंतर्गत	-10.527
▁गठन	-10.527
▁fruit	-10.527
▁equation	-10.527
▁doctor	-10.527
Political	-10.527
▁Borman	-10.527
▁inscription	-10.527
▁Governor	-10.527
▁gift	-10.527
▁revolt	-10.527
▁घाटी	-10.527
▁mixture	-10.5271
▁चुनाव	-10.5271
▁paid	-10.5271
▁नीति	-10.5272
▁tourism	-10.5272
change	-10.5272
▁Syria	-10.5272
▁शब्दकोश	-10.5273
Every	-10.5274
▁Martin	-10.5274
▁रहते	-10.5276
▁counties	-10.5276
▁1961	-10.5277
▁genre	-10.5277
▁theories	-10.5278
▁biological	-10.5279
▁1974	-10.5282
▁1972	-10.5282
▁output	-10.5282
▁deaf	-10.5284
▁चुन	-10.5286
▁attributed	-10.5286
▁rapidly	-10.5291
▁lose	-10.5292
▁कानून	-10.5293
▁Each	-10.5301
▁shell	-10.5302
▁Rome	-10.5304
rav	-10.5308
▁merge	-10.531
▁chart	-10.5316
▁annually	-10.5317
Scottish	-10.5327
▁bad	-10.533
अटल	-10.534
करण	-10.5345
▁faced	-10.5346
called	-10.5346
▁वो	-10.5351
र्च	-10.5352
▁prove	-10.5378
hir	-10.5383
▁mental	-10.5387
law	-10.5419
▁38	-10.5433
▁spend	-10.549
त्‍	-10.5516
▁municipal	-10.5518
नारायण	-10.552
▁Francis	-10.552
▁Organization	-10.552
▁Proclamation	-10.552
▁absorb	-10.552
▁committee	-10.552
▁identify	-10.552
▁opponent	-10.552
▁security	-10.552
▁somewhat	-10.552
▁कड़ियाँ	-10.552
▁जिन्होंने	-10.552
▁बल्कि	-10.552
▁मस्जिद	-10.552
▁मस्तिष्क	-10.552
▁शुरुआत	-10.552
▁हरियाणा	-10.552
▁स्रोत	-10.552
▁Omotic	-10.552
▁refuge	-10.552
▁Lovell	-10.552
▁otherwise	-10.552
Natural	-10.552
▁Maryland	-10.552
▁radical	-10.552
लिंग	-10.552
▁दिए	-10.552
▁1982	-10.552
▁सूर्य	-10.552
▁Johann	-10.552
Computer	-10.552
भाषी	-10.552
▁१६	-10.552
▁मानते	-10.552
Culture	-10.552
▁उपनिषदों	-10.552
▁reverse	-10.5522
base	-10.5527
▁predominantly	-10.5528
▁अभी	-10.5528
▁उसका	-10.5529
▁achievement	-10.5529
ोत्तर	-10.553
▁dance	-10.5534
wide	-10.5535
▁बिना	-10.5537
▁chance	-10.5539
▁succeeded	-10.554
▁stem	-10.554
▁suffered	-10.5543
ण्ट	-10.5544
▁breeding	-10.5559
▁vice	-10.5559
हिंद	-10.5559
▁पै	-10.5563
hour	-10.5564
▁parties	-10.5575
▁gather	-10.5603
▁You	-10.5607
neuro	-10.5626
eight	-10.565
▁बता	-10.5654
▁प्राय	-10.5668
▁genera	-10.5699
lov	-10.5702
▁conduct	-10.5722
▁divide	-10.5735
Modern	-10.5742
महा	-10.5743
▁spoke	-10.5753
point	-10.5754
▁chose	-10.5756
Book	-10.5759
making	-10.5762
lm	-10.5764
▁Tom	-10.5774
▁ऑफ	-10.5775
१४	-10.5776
▁Dictionary	-10.5776
▁Digital	-10.5776
▁administrative	-10.5776
▁assumption	-10.5776
▁astronomy	-10.5776
▁calculation	-10.5776
▁continuous	-10.5776
▁estimates	-10.5776
▁lecture	-10.5776
▁migration	-10.5776
▁neither	-10.5776
▁sufficient	-10.5776
▁आधिकारिक	-10.5776
▁उद्देश्य	-10.5776
▁जनगणना	-10.5776
▁पहुँच	-10.5776
▁समृद्ध	-10.5776
▁exploit	-10.5776
▁विस्तार	-10.5776
▁disagree	-10.5776
▁Luanda	-10.5776
▁Archive	-10.5776
▁transition	-10.5776
▁Government	-10.5776
▁rotation	-10.5776
▁dream	-10.5776
▁nomination	-10.5776
▁संकेत	-10.5776
▁alliance	-10.5776
▁priest	-10.5776
▁phase	-10.5776
▁gender	-10.5777
Foreign	-10.5777
▁Saint	-10.5777
▁supplies	-10.5778
▁cited	-10.5779
▁चर्च	-10.5779
मन्त्र	-10.578
▁staff	-10.5783
▁hind	-10.5785
▁निजी	-10.5788
▁सहित	-10.579
arily	-10.5791
▁Frank	-10.5795
▁कप	-10.5802
▁Fund	-10.5821
▁कवि	-10.5822
phil	-10.5827
play	-10.5832
back	-10.5837
▁sex	-10.5843
stein	-10.5858
▁Max	-10.5861
▁format	-10.5863
▁southeast	-10.5917
Art	-10.5921
खण्ड	-10.5927
▁Austria	-10.5957
▁Abd	-10.5979
▁appoint	-10.5985
जय	-10.5986
चित्र	-10.6013
New	-10.6015
Roman	-10.6021
space	-10.6022
▁exclusive	-10.6039
Buddhist	-10.6039
ब्राह्म	-10.6039
▁Calgary	-10.6039
▁Collins	-10.6039
▁Hebrew	-10.6039
▁criminal	-10.6039
▁defense	-10.6039
▁hospital	-10.6039
▁livestock	-10.6039
▁molecular	-10.6039
▁railroad	-10.6039
▁settlers	-10.6039
▁जनजाति	-10.6039
▁प्रधानमंत्री	-10.6039
▁हिमालय	-10.6039
▁margin	-10.6039
▁nominee	-10.6039
▁teacher	-10.6039
▁परम्परा	-10.6039
▁पाँच	-10.6039
▁परन्तु	-10.6039
▁melting	-10.6039
▁retreat	-10.6039
▁सफल	-10.6039
▁संसद	-10.6039
▁निगम	-10.6039
▁club	-10.6039
▁Orange	-10.6039
▁strict	-10.6039
▁1988	-10.6039
▁brain	-10.6039
▁Andrei	-10.604
▁Coast	-10.604
▁marine	-10.604
Anarchist	-10.6043
sphere	-10.6043
स्‍थ	-10.6043
▁साधन	-10.6043
▁switch	-10.6044
▁stability	-10.6044
▁visitors	-10.6045
▁alongside	-10.6045
▁tetra	-10.6045
▁documentary	-10.6049
▁शैली	-10.6049
▁consumer	-10.6051
▁Online	-10.6053
▁1940	-10.6057
▁laid	-10.6061
Louis	-10.6061
▁Mount	-10.6062
▁होगा	-10.6062
incorporated	-10.6063
▁जनता	-10.6065
▁pack	-10.6067
▁sort	-10.6068
▁joint	-10.6076
आत्म	-10.6089
▁Sport	-10.6109
▁mode	-10.612
uba	-10.6133
▁अनुमान	-10.6141
?"	-10.6144
▁topic	-10.6148
tense	-10.6151
person	-10.6178
zen	-10.624
▁300	-10.6249
▁expand	-10.6267
अलग	-10.6291
ऑस्ट्रेलिया	-10.6292
night	-10.6292
South	-10.6293
▁legislat	-10.6302
ऋ	-10.6309
Agricultural	-10.6309
दृश्य	-10.6309
▁Curaçao	-10.6309
▁Harvard	-10.6309
▁Hellenistic	-10.6309
▁Maghreb	-10.6309
▁Patroclus	-10.6309
▁abolition	-10.6309
▁budget	-10.6309
▁conquered	-10.6309
▁plural	-10.6309
▁providing	-10.6309
▁resemble	-10.6309
▁roughly	-10.6309
▁schedule	-10.6309
▁आसपास	-10.6309
▁घोषित	-10.6309
▁Heritage	-10.6309
▁Israel	-10.6309
▁Studio	-10.6309
▁opinion	-10.6309
▁ध्वनि	-10.6309
▁ethics	-10.6309
▁fossil	-10.6309
▁rebellion	-10.6309
▁punish	-10.6309
▁कहीं	-10.6309
ophytes	-10.6309
▁क्षेत्रफल	-10.6309
▁episode	-10.6309
▁जैन	-10.6309
▁Special	-10.6309
▁silver	-10.6309
▁employees	-10.6309
▁शासक	-10.6309
▁दिशा	-10.631
▁AFC	-10.631
▁inventor	-10.631
▁commission	-10.631
▁Index	-10.631
▁render	-10.631
▁तकनीक	-10.6311
▁quite	-10.6311
▁polar	-10.6311
Social	-10.6311
▁संविधान	-10.6311
▁मार्च	-10.6312
▁constructed	-10.6312
हिंदू	-10.6312
▁consul	-10.6312
▁घटनाओं	-10.6313
▁मील	-10.6313
▁contest	-10.6315
▁अवधि	-10.6317
▁sentence	-10.6318
▁कविता	-10.6318
▁सत्य	-10.6319
▁भावना	-10.632
▁देखने	-10.6321
▁considerable	-10.6322
▁useful	-10.6332
▁harm	-10.6362
▁factory	-10.6362
▁treaty	-10.6368
axi	-10.6371
▁closer	-10.6385
▁programme	-10.6397
द्द	-10.6449
ोँ	-10.6478
▁Late	-10.6486
▁Carl	-10.6497
▁गोल	-10.6537
▁स्प	-10.6555
▁electrical	-10.6562
▁rapid	-10.6563
▁victor	-10.6564
present	-10.6568
member	-10.6577
Ankara	-10.6577
General	-10.6577
British	-10.6578
▁threat	-10.6587
▁पर्यटक	-10.6587
Economic	-10.6587
Linguistic	-10.6587
franchise	-10.6587
गूगल	-10.6587
शीर्ष	-10.6587
▁Florida	-10.6587
▁absolute	-10.6587
▁appropriate	-10.6587
▁colloquial	-10.6587
▁committed	-10.6587
▁controversial	-10.6587
▁headquarters	-10.6587
▁inhabitants	-10.6587
▁opposite	-10.6587
▁passenger	-10.6587
▁twenty	-10.6587
▁अथर्व	-10.6587
▁अन्तर्गत	-10.6587
▁महासागर	-10.6587
▁विभाजन	-10.6587
देवताओं	-10.6587
▁Algiers	-10.6587
▁Project	-10.6587
▁किन्तु	-10.6587
▁अक्सर	-10.6587
▁छोड़	-10.6587
▁kingdom	-10.6587
▁1967	-10.6587
▁अकबर	-10.6587
▁जिसकी	-10.6587
▁combat	-10.6587
शासित	-10.6587
▁cotton	-10.6587
▁fresh	-10.6587
▁meteor	-10.6587
▁पुराना	-10.6587
▁balance	-10.6588
द्वितीय	-10.6588
Historian	-10.6588
▁Australian	-10.6588
▁analog	-10.6588
▁Ltd	-10.6588
▁जून	-10.659
▁fellow	-10.659
Women	-10.6591
▁managed	-10.6591
▁filmmaker	-10.6591
▁पुत्र	-10.6591
▁safety	-10.6592
▁तर्क	-10.6593
▁Hector	-10.6593
▁poetry	-10.6594
▁आवश्यकता	-10.6594
▁सेवाओं	-10.6595
▁persist	-10.6596
▁specialized	-10.6597
▁actors	-10.6597
▁1993	-10.6598
▁jet	-10.6601
▁Slam	-10.6602
tie	-10.6604
▁रंग	-10.6605
▁prepared	-10.6605
▁gravitational	-10.6608
▁suffering	-10.661
▁demonstrated	-10.6612
▁इससे	-10.6612
▁participated	-10.6618
▁रस	-10.6618
▁दूरी	-10.6619
▁gene	-10.6619
ASA	-10.662
▁civilian	-10.6628
▁नौ	-10.6633
▁ionic	-10.6663
Austrian	-10.6675
▁150	-10.6754
▁जुड़	-10.6754
▁reject	-10.682
▁contribute	-10.6832
▁associate	-10.6832
▁Medi	-10.6841
▁Mark	-10.6864
claim	-10.6867
▁घटना	-10.6869
Afroasiatic	-10.687
आधुनिक	-10.6871
Alberta	-10.6872
Hitchcock	-10.6872
Alabama	-10.6872
Alaska	-10.6872
emphasize	-10.6873
▁Country	-10.6873
▁Saturn	-10.6873
▁Scotland	-10.6873
▁accurate	-10.6873
▁admitted	-10.6873
▁altruistic	-10.6873
▁favour	-10.6873
▁heavier	-10.6873
▁impossible	-10.6873
▁involving	-10.6873
▁literally	-10.6873
▁peninsula	-10.6873
▁significance	-10.6873
▁territorial	-10.6873
▁volunteer	-10.6873
▁तापमान	-10.6873
▁परियोजना	-10.6873
▁मौसम	-10.6873
Religion	-10.6873
▁Federal	-10.6873
▁उल्लेखनीय	-10.6873
▁भाष्य	-10.6873
▁समाप्त	-10.6873
▁तंत्रिका	-10.6873
Euclid	-10.6873
▁UTF	-10.6873
▁reputation	-10.6873
▁dollar	-10.6873
▁Levant	-10.6873
▁stress	-10.6873
senior	-10.6873
▁folk	-10.6873
▁bomb	-10.6873
Current	-10.6873
▁examine	-10.6873
▁जिसने	-10.6873
▁organisms	-10.6874
धारा	-10.6874
▁check	-10.6874
1959	-10.6875
▁Ceres	-10.6875
▁About	-10.6875
.4%	-10.6875
▁grass	-10.6875
▁cancer	-10.6875
▁throw	-10.6876
▁Graham	-10.6876
▁diplomatic	-10.6878
▁wire	-10.6879
▁1776	-10.688
▁metallic	-10.6881
▁rising	-10.6882
▁airport	-10.6884
▁Iranian	-10.6885
▁gradually	-10.6885
▁1921	-10.6886
▁प्रकाशन	-10.689
▁drop	-10.6893
▁Anders	-10.6896
शहर	-10.6897
▁Nova	-10.6897
३०	-10.6903
▁1919	-10.6914
▁county	-10.6922
▁youth	-10.6922
▁क्षेत्रीय	-10.6926
▁reign	-10.6927
▁electronic	-10.6929
▁classes	-10.6936
▁Such	-10.6962
▁theater	-10.6964
▁Sub	-10.6979
▁unusual	-10.7026
▁Dam	-10.7031
3,000	-10.7037
▁student	-10.7125
▁amphibian	-10.7125
प्प	-10.7132
▁Jan	-10.7136
▁Christ	-10.7157
▁occasion	-10.7164
▁Prince	-10.7167
▁recommend	-10.7167
▁राजमार्ग	-10.7167
▁Babylon	-10.7167
▁Convention	-10.7167
▁Journal	-10.7167
▁Macintosh	-10.7167
▁acknowledge	-10.7167
▁ambiguous	-10.7167
▁background	-10.7167
▁bacteria	-10.7167
▁bottom	-10.7167
▁caecilians	-10.7167
▁judgment	-10.7167
▁numeral	-10.7167
▁parliament	-10.7167
▁औद्योगिक	-10.7167
▁दुर्ग	-10.7167
▁वास्तव	-10.7167
Climate	-10.7167
▁Dagny	-10.7167
▁expensive	-10.7167
▁iPad	-10.7167
▁recognition	-10.7167
▁straight	-10.7167
▁violent	-10.7167
▁अच्छी	-10.7167
▁assigned	-10.7167
▁Additionally	-10.7167
▁snake	-10.7167
▁trading	-10.7167
▁Catalan	-10.7167
▁dropped	-10.7167
▁Whig	-10.7167
▁Disney	-10.7167
▁Athena	-10.7167
▁compete	-10.7167
▁परिषद	-10.7167
▁birds	-10.7167
▁Andrew	-10.7167
▁monarch	-10.7167
▁mutual	-10.7167
▁zero	-10.7168
▁ऑफ़	-10.7168
Chief	-10.7168
▁गुप्त	-10.7169
▁correspondence	-10.717
▁raid	-10.7173
What	-10.7173
▁criticized	-10.7173
प्रयागराज	-10.7173
▁phoneme	-10.7174
Andorra	-10.7174
▁systematic	-10.7175
product	-10.7175
▁leadership	-10.7175
खेल	-10.7176
▁1775	-10.7176
▁मिलती	-10.718
▁पाठ	-10.718
▁1965	-10.7182
▁गिर	-10.7182
▁1964	-10.7184
human	-10.7184
free	-10.7185
▁rocket	-10.7185
▁Adam	-10.7185
▁unlike	-10.7186
▁concluded	-10.719
▁mouthwashes	-10.7194
▁goat	-10.7198
ेयर	-10.7211
मेंट	-10.7217
▁मानक	-10.7218
▁moon	-10.7225
drawn	-10.7227
▁undergo	-10.7256
▁trip	-10.7283
▁rose	-10.7331
Final	-10.7335
▁पहल	-10.7417
▁understand	-10.7421
▁generate	-10.7435
▁alkane	-10.7438
ophone	-10.745
▁Ueshiba	-10.747
▁occupation	-10.747
Etymology	-10.747
▁Assembly	-10.747
▁Clockwork	-10.747
▁Friedrich	-10.747
▁attached	-10.747
▁fertilizer	-10.747
▁husband	-10.747
▁investigation	-10.747
▁precipitation	-10.747
▁tournament	-10.747
▁आन्दोलन	-10.747
▁बनवाया	-10.747
▁विशिष्ट	-10.747
▁सम्राट	-10.747
▁हिस्से	-10.747
▁Office	-10.747
▁atmosphere	-10.747
▁suppress	-10.747
▁इसलिए	-10.747
▁मान्यता	-10.747
▁विरोध	-10.747
▁सुंदर	-10.747
▁मौर्य	-10.747
▁पटना	-10.747
Production	-10.747
▁tongue	-10.747
Similar	-10.747
▁Information	-10.747
▁superior	-10.747
▁pilot	-10.747
▁ranging	-10.747
ऑस्ट्र	-10.747
▁रोमन	-10.747
▁merely	-10.747
▁firm	-10.747
▁पूरी	-10.747
▁कानपुर	-10.747
▁गणित	-10.747
▁tennis	-10.747
▁Director	-10.7471
▁architecture	-10.7471
▁quote	-10.7471
▁loose	-10.7471
plastic	-10.7471
▁moderate	-10.7472
▁subset	-10.7473
▁राज्‍य	-10.7473
▁सहयोग	-10.7473
▁preferred	-10.7473
▁अवध	-10.7474
▁देवी	-10.7476
▁लिपियों	-10.7476
▁occurring	-10.7476
▁Jones	-10.7476
▁सागर	-10.7477
▁improvement	-10.7478
▁Seward	-10.7478
▁Seven	-10.7479
▁Solar	-10.7479
▁odd	-10.7479
▁प्रयुक्त	-10.748
▁minority	-10.7482
बन्ध	-10.7483
▁पानी	-10.7485
▁1945	-10.7486
Human	-10.7486
Film	-10.7486
चंडीगढ़	-10.7487
▁lake	-10.7487
देवनागरी	-10.7487
modern	-10.7488
▁1939	-10.7488
North	-10.7488
State	-10.749
▁कथा	-10.749
▁coming	-10.7492
▁mining	-10.7494
▁Jean	-10.7494
▁chosen	-10.7497
▁अमर	-10.7504
▁बनाना	-10.7504
▁driven	-10.7511
▁save	-10.7511
▁Free	-10.7526
▁१२	-10.7529
ष्ण	-10.7687
▁breed	-10.7735
ुआ	-10.7753
▁historic	-10.7755
▁decade	-10.776
▁चीन	-10.7775
▁diploma	-10.7777
लिखित	-10.7782
Aikido	-10.7782
Cultural	-10.7782
latitude	-10.7782
हालांकि	-10.7782
▁Balkan	-10.7782
▁Ministry	-10.7782
▁Moscow	-10.7782
▁Nevertheless	-10.7782
▁UNITA	-10.7782
▁adjacent	-10.7782
▁competition	-10.7782
▁feminine	-10.7782
▁impression	-10.7782
▁inspired	-10.7782
▁larvae	-10.7782
▁mechanics	-10.7782
▁provincial	-10.7782
▁synthesis	-10.7782
▁कॉलेज	-10.7782
▁घरेलू	-10.7782
▁तैयार	-10.7782
▁Emperor	-10.7783
▁burrow	-10.7783
▁dominant	-10.7783
▁प्रमाण	-10.7783
▁लिखे	-10.7783
▁संभव	-10.7783
▁cloud	-10.7783
▁nominated	-10.7783
▁diameter	-10.7783
▁royal	-10.7783
▁1783	-10.7783
▁1947	-10.7783
▁Family	-10.7783
▁1977	-10.7783
▁Golden	-10.7783
▁premier	-10.7783
▁crisis	-10.7783
▁muscle	-10.7783
▁ऋषि	-10.7783
▁Amstel	-10.7783
▁1983	-10.7783
▁MSA	-10.7783
▁हजार	-10.7783
▁Techni	-10.7783
▁voting	-10.7783
▁naval	-10.7783
▁तेजी	-10.7783
▁oracle	-10.7783
▁विश्लेषण	-10.7784
Tourism	-10.7784
▁कार्यक्रम	-10.7784
▁Crete	-10.7784
▁magic	-10.7785
▁Minor	-10.7786
▁सिंधु	-10.7786
▁हेतु	-10.7786
▁विजय	-10.7786
▁Examples	-10.7787
िष्ठ	-10.7787
▁diversity	-10.7787
▁Series	-10.7789
Death	-10.7789
▁membership	-10.779
Anime	-10.7791
▁Lord	-10.7794
▁विवाद	-10.7797
▁march	-10.7797
Psycho	-10.78
▁1864	-10.78
▁possession	-10.78
▁उपनिषद्	-10.7802
ologie	-10.7807
प्राचीन	-10.7808
▁क्या	-10.7809
Arabic	-10.781
Earth	-10.781
Geography	-10.7827
▁Kong	-10.783
▁socio	-10.7831
▁अंक	-10.7833
▁पड़ा	-10.7904
maker	-10.7912
▁eat	-10.7986
aught	-10.8016
▁linguist	-10.8021
▁raise	-10.8066
▁faith	-10.8073
▁आवश्यक	-10.8097
▁statistical	-10.8105
▁व्यंजन	-10.8105
Literature	-10.8105
eanwhile	-10.8105
पर्यावरण	-10.8105
▁Benjamin	-10.8105
▁Collection	-10.8105
▁Committee	-10.8105
▁Douglas	-10.8105
▁Frederick	-10.8105
▁MPLA	-10.8105
▁accompanied	-10.8105
▁borough	-10.8105
▁conservative	-10.8105
▁encoding	-10.8105
▁facilities	-10.8105
▁galaxy	-10.8105
▁hydroxide	-10.8105
▁policies	-10.8105
▁professor	-10.8105
▁receiving	-10.8105
▁recruit	-10.8105
▁vocabulary	-10.8105
▁अपेक्षा	-10.8105
▁आरंभ	-10.8105
▁इत्यादि	-10.8105
▁कंपनियों	-10.8105
▁गार्डन	-10.8105
▁पीछे	-10.8105
▁मातरम्	-10.8105
▁मानसून	-10.8105
▁संदर्भ	-10.8105
▁Jupiter	-10.8105
▁Sweden	-10.8105
▁buried	-10.8105
▁innovation	-10.8105
▁narrow	-10.8105
▁जैसी	-10.8105
▁सहायक	-10.8105
▁Clinton	-10.8105
▁prevail	-10.8105
▁reduction	-10.8105
▁theoretical	-10.8105
▁सीमित	-10.8105
▁dismiss	-10.8105
▁संसार	-10.8105
▁Mission	-10.8105
▁interior	-10.8105
▁loyal	-10.8105
▁spelling	-10.8105
▁clade	-10.8105
▁partially	-10.8105
▁Irish	-10.8105
▁नीचे	-10.8105
▁crime	-10.8105
▁न्याय	-10.8106
▁edited	-10.8106
▁crater	-10.8106
▁varies	-10.8106
▁screenplay	-10.8106
▁ethical	-10.8106
मण्डल	-10.8106
▁करीब	-10.8106
▁drink	-10.8106
▁giant	-10.8106
▁gills	-10.8107
▁sovereignty	-10.8107
ullah	-10.8107
▁infant	-10.8107
▁cattle	-10.8107
▁Secretary	-10.8107
▁plus	-10.8108
▁label	-10.8109
▁ईसाई	-10.8109
▁गुरु	-10.8109
▁nothing	-10.8109
▁buy	-10.811
▁chair	-10.811
▁bridge	-10.811
▁Howe	-10.811
▁thick	-10.8111
 ...	-10.8111
▁boy	-10.8116
▁Prime	-10.8117
▁realized	-10.812
▁biology	-10.8122
▁चीनी	-10.8123
▁noble	-10.8124
▁BBC	-10.8126
▁लेने	-10.8128
▁attraction	-10.8129
▁transportation	-10.813
▁steppe	-10.8132
▁मेला	-10.8137
Ancient	-10.8141
break	-10.8142
&	-10.8143
second	-10.8144
०००	-10.8144
Another	-10.8144
▁rebel	-10.8144
▁Historic	-10.8146
▁driver	-10.8173
▁grave	-10.8186
pull	-10.8209
ख़	-10.8241
shaped	-10.8254
▁Rose	-10.8309
Historical	-10.8396
▁1000	-10.8416
▁विद्वान	-10.842
▁जिसमे	-10.8432
▁salamander	-10.8437
abilities	-10.8438
▁neighbour	-10.8438
Alphabet	-10.8438
Pennsylvania	-10.8438
सांख्यिकी	-10.8438
▁Achaemenid	-10.8438
▁Jefferson	-10.8438
▁Kennedy	-10.8438
▁Missouri	-10.8438
▁Phoenician	-10.8438
▁Wimbledon	-10.8438
▁arrangement	-10.8438
▁blockade	-10.8438
▁circumstances	-10.8438
▁consensus	-10.8438
▁convinced	-10.8438
▁describing	-10.8438
▁destruction	-10.8438
▁emulsion	-10.8438
▁illustrate	-10.8438
▁intermediate	-10.8438
▁manuscript	-10.8438
▁martial	-10.8438
▁perceived	-10.8438
▁perception	-10.8438
▁physicist	-10.8438
▁इस्तेमाल	-10.8438
▁कंपनी	-10.8438
▁परिणाम	-10.8438
▁पहुंच	-10.8438
▁विस्तृत	-10.8438
▁व्याख्या	-10.8438
▁सम्बंधित	-10.8438
communist	-10.8438
▁Artemis	-10.8438
▁abolish	-10.8438
▁capacity	-10.8438
▁chapter	-10.8438
▁pioneer	-10.8438
▁vessel	-10.8438
▁उनमें	-10.8438
Bitumen	-10.8438
▁Alexandria	-10.8438
▁Global	-10.8438
▁sacred	-10.8438
▁विद्यालय	-10.8438
▁Instead	-10.8438
▁changing	-10.8438
▁शोध	-10.8438
▁selection	-10.8438
▁लगे	-10.8438
▁Square	-10.8438
▁absence	-10.8438
▁आकाश	-10.8439
▁Iliad	-10.8439
▁Street	-10.8439
▁copies	-10.8439
▁fetus	-10.8439
▁patron	-10.8439
carriage	-10.8439
▁silk	-10.8439
▁दिखाई	-10.844
▁begun	-10.844
▁interact	-10.844
▁Theatre	-10.8441
▁regiment	-10.8441
▁बुद्ध	-10.8441
▁municipalities	-10.8441
▁coloniz	-10.8441
▁बजाय	-10.8441
▁sail	-10.8441
▁प्रांत	-10.8441
▁grain	-10.8441
▁hired	-10.8442
▁बताया	-10.8442
▁Little	-10.8442
▁Bird	-10.8442
Three	-10.8443
▁praise	-10.8444
▁Airport	-10.8445
▁Delos	-10.8446
Upon	-10.845
▁गर्म	-10.845
▁difficulties	-10.8454
▁grand	-10.8454
▁cave	-10.8457
▁राय	-10.8459
शाली	-10.8461
gcd	-10.8465
▁1914	-10.8465
▁प्रजा	-10.8465
▁Store	-10.847
▁memo	-10.8477
▁Euro	-10.8482
▁चीज	-10.8486
Azerbaijan	-10.8488
Greek	-10.8488
United	-10.8488
Albania	-10.8488
third	-10.849
▁राष्ट्रवाद	-10.8503
Most	-10.8509
स्थिति	-10.8524
nominal	-10.8527
Phys	-10.8541
▁जुड़ा	-10.8581
▁Mongol	-10.8615
▁southwest	-10.8637
▁northeast	-10.8693
digit	-10.8771
▁maxim	-10.8779
ेन्द्र	-10.8781
▁chlor	-10.8783
▁pronoun	-10.8783
▁reinforce	-10.8783
▁▁▁▁▁▁▁▁▁▁▁▁▁	-10.8783
disambiguation	-10.8783
emphatic	-10.8783
structural	-10.8783
▁Cornwallis	-10.8783
▁District	-10.8783
▁Hospital	-10.8783
▁Montgomery	-10.8783
▁Swedish	-10.8783
▁adjective	-10.8783
▁companion	-10.8783
▁configuration	-10.8783
▁consumption	-10.8783
▁enforcement	-10.8783
▁immigrants	-10.8783
▁merchant	-10.8783
▁minimum	-10.8783
▁mortality	-10.8783
▁opportunity	-10.8783
▁sculpture	-10.8783
▁twelve	-10.8783
▁university	-10.8783
▁अवधारणा	-10.8783
▁इंग्लैंड	-10.8783
▁उत्पन्न	-10.8783
▁राजनैतिक	-10.8783
▁वाजपेयी	-10.8783
▁विष्णु	-10.8783
▁वैष्णव	-10.8783
▁Scotia	-10.8783
▁accused	-10.8783
▁अधीन	-10.8783
▁अध्यक्ष	-10.8783
▁आचार्य	-10.8783
▁प्रत्यक्ष	-10.8783
▁समर्थन	-10.8783
▁psychological	-10.8783
▁सेक्टर	-10.8783
▁स्वीकार	-10.8783
Countries	-10.8783
▁message	-10.8783
▁dissolve	-10.8783
▁वजह	-10.8783
▁density	-10.8783
▁telegraph	-10.8783
▁stories	-10.8783
▁झील	-10.8783
▁Darius	-10.8783
▁habitat	-10.8783
रक्षण	-10.8783
▁ऐसी	-10.8783
▁why	-10.8783
▁infinite	-10.8783
▁अर्थात्	-10.8783
Character	-10.8783
▁sharp	-10.8783
▁milk	-10.8783
▁पूरा	-10.8784
▁hatch	-10.8784
▁sight	-10.8784
▁copy	-10.8784
अर्थात	-10.8785
▁mystic	-10.8785
Author	-10.8785
▁circle	-10.8786
▁पैदा	-10.8786
▁आत्मा	-10.8786
▁occasionally	-10.8786
▁रेल	-10.8787
▁maximum	-10.8788
▁planning	-10.8789
▁boundary	-10.879
▁Karl	-10.879
▁rail	-10.8791
▁ensure	-10.8793
▁Today	-10.8798
▁thermal	-10.8798
▁highway	-10.8798
▁provision	-10.8799
▁dating	-10.88
▁aimed	-10.8801
▁नेपाल	-10.8801
▁Motor	-10.8804
▁mainland	-10.8807
संगीत	-10.8845
संचार	-10.897
Common	-10.9032
▁रोज	-10.9057
▁fail	-10.9087
▁mix	-10.9097
▁उपस्थित	-10.9134
Environment	-10.914
▁Adriatic	-10.914
▁Athabasca	-10.914
▁Campaign	-10.914
▁Colorado	-10.914
▁Durrani	-10.914
▁Security	-10.914
▁advertisement	-10.914
▁continuing	-10.914
▁earthquake	-10.914
▁emerging	-10.914
▁monitor	-10.914
▁necessarily	-10.914
▁phenomena	-10.914
▁politician	-10.914
▁portrait	-10.914
▁submitted	-10.914
▁terrestrial	-10.914
▁uncertain	-10.914
▁vertebrate	-10.914
▁virtual	-10.914
▁अस्तित्व	-10.914
▁कांग्रेस	-10.914
▁घोषणा	-10.914
▁दैनिक	-10.914
▁प्रणाली	-10.914
▁सर्वेक्षण	-10.914
▁साक्षरता	-10.914
▁exercise	-10.914
▁pollution	-10.914
▁spaceflight	-10.914
▁निर्मित	-10.914
▁Factory	-10.914
▁Russell	-10.914
▁abstract	-10.914
▁sponsor	-10.914
▁NGC	-10.914
▁mobile	-10.914
▁methane	-10.914
▁scheme	-10.914
▁उठा	-10.914
▁बांध	-10.914
▁लघु	-10.914
▁creative	-10.914
▁Study	-10.914
▁smooth	-10.914
▁unstable	-10.9141
▁singular	-10.9141
▁regain	-10.9141
▁goddess	-10.9141
▁Senate	-10.9141
▁cabin	-10.9141
▁crust	-10.9141
▁अच्छा	-10.9141
Asteroid	-10.9141
स्वामी	-10.9141
▁finite	-10.9141
▁ऊँचाई	-10.9141
▁जापान	-10.9141
▁childhood	-10.9141
▁threatened	-10.9141
▁जानकारी	-10.9141
▁isolated	-10.9141
▁Santos	-10.9141
▁Games	-10.9141
▁ताकि	-10.9141
▁ionisation	-10.9141
▁railway	-10.9142
चंद्र	-10.9142
▁rotor	-10.9142
▁जाएगा	-10.9143
▁descendant	-10.9143
▁कैसे	-10.9144
▁Short	-10.9144
▁जयपुर	-10.9146
▁referring	-10.9147
▁assistant	-10.9147
▁विश्वास	-10.915
▁फैला	-10.9151
▁1778	-10.9151
▁fastest	-10.9153
▁denote	-10.9153
▁1933	-10.9154
▁कहना	-10.9156
▁estate	-10.9158
▁horn	-10.9161
▁mood	-10.9167
▁talk	-10.917
▁bow	-10.9173
्बे	-10.9175
शासनकाल	-10.9193
Unlike	-10.9207
भूमि	-10.9215
एशिया	-10.9215
Algeria	-10.9216
संघ	-10.9219
scale	-10.9269
▁प्रस्तुत	-10.9288
लोक	-10.9318
▁Korea	-10.938
western	-10.9399
विधान	-10.9403
nsted	-10.9412
▁participate	-10.9469
negotia	-10.9501
हस्त	-10.9505
▁descend	-10.9508
Scientific	-10.9511
▁Caucasus	-10.9511
▁Chicago	-10.9511
▁GOTO	-10.9511
▁Kandahar	-10.9511
▁Morocco	-10.9511
▁UNESCO	-10.9511
▁aardwolf	-10.9511
▁abundant	-10.9511
▁college	-10.9511
▁decisive	-10.9511
▁diamond	-10.9511
▁landscape	-10.9511
▁monocots	-10.9511
▁nuclei	-10.9511
▁जिन्हें	-10.9511
▁धारणा	-10.9511
▁प्रश्न	-10.9511
▁मध्यप्रदेश	-10.9511
▁लागू	-10.9511
▁Venezuela	-10.9511
▁accomplish	-10.9511
▁northwest	-10.9511
▁possibility	-10.9511
▁तथ्य	-10.9511
▁प्रकृति	-10.9511
▁antiquity	-10.9511
▁balloon	-10.9511
▁trigger	-10.9511
▁weather	-10.9511
▁witness	-10.9511
▁Federer	-10.9511
▁Freedom	-10.9511
▁Therefore	-10.9511
▁easier	-10.9511
▁labour	-10.9511
▁चुका	-10.9511
Alkanes	-10.9511
▁Agency	-10.9511
खगोल	-10.9511
▁colony	-10.9511
▁remote	-10.9511
▁spectral	-10.9511
▁exposed	-10.9511
▁vertical	-10.9511
▁incident	-10.9511
▁binary	-10.9511
Energy	-10.9511
Sidwell	-10.9511
▁easy	-10.9511
▁गैर	-10.9511
▁पांच	-10.9511
▁assembly	-10.9511
▁termites	-10.9512
▁Anglo	-10.9512
▁defect	-10.9512
▁losing	-10.9513
▁pursue	-10.9513
▁guide	-10.9513
▁feet	-10.9513
▁dress	-10.9514
▁mythology	-10.9514
cognitive	-10.9515
assembl	-10.9516
▁assistance	-10.9518
keeping	-10.9519
▁domesticated	-10.9519
▁1905	-10.9521
▁पाए	-10.9522
▁Doric	-10.9525
▁पाया	-10.9527
▁dense	-10.9531
▁observer	-10.9533
▁१३	-10.954
1931	-10.9543
▁embryo	-10.9544
▁Mountain	-10.955
chemical	-10.9597
▁Nazi	-10.9599
‘	-10.96
0.2	-10.964
covered	-10.9857
▁manufacture	-10.9859
▁neo	-10.9872
▁Persia	-10.9874
▁ratio	-10.9893
Australia	-10.9895
▁महत्त्व	-10.9895
Bibliography	-10.9895
▁Pittsburgh	-10.9895
▁Proposal	-10.9895
▁anniversary	-10.9895
▁astronomical	-10.9895
▁attitude	-10.9895
▁behaviour	-10.9895
▁comparative	-10.9895
▁delegates	-10.9895
▁elsewhere	-10.9895
▁identity	-10.9895
▁nickname	-10.9895
▁participant	-10.9895
▁primitive	-10.9895
▁quantities	-10.9895
▁thirteen	-10.9895
▁अमेरिकी	-10.9895
▁निर्धारित	-10.9895
▁मोहाली	-10.9895
▁विभाजित	-10.9895
▁संग्राम	-10.9895
▁सम्मिलित	-10.9895
शिक्षण	-10.9895
▁braille	-10.9895
▁tendency	-10.9895
▁कहलाता	-10.9895
▁नेहरू	-10.9895
▁फ़ारसी	-10.9895
▁समाचार	-10.9895
▁सहायता	-10.9895
▁Campbell	-10.9895
▁patriot	-10.9895
▁poverty	-10.9895
▁सुरक्षा	-10.9895
▁Corinth	-10.9895
▁रक्षा	-10.9895
▁शैव	-10.9895
▁divine	-10.9895
▁तहत	-10.9895
▁Holland	-10.9895
▁इमारत	-10.9895
▁morphology	-10.9895
▁siege	-10.9895
▁तमिल	-10.9895
▁implies	-10.9896
▁audio	-10.9896
▁Volume	-10.9896
▁resolve	-10.9896
▁diverge	-10.9896
Reconstruction	-10.9896
गाँव	-10.9896
▁evolutionary	-10.9896
▁1928	-10.9896
▁शेष	-10.9896
▁storm	-10.9896
वन्दे	-10.9896
▁Modest	-10.9896
▁lungs	-10.9896
▁ISO	-10.9896
▁पुराने	-10.9896
▁huge	-10.9896
▁restrictions	-10.9896
1777	-10.9896
▁रूस	-10.9897
▁depth	-10.9897
▁gross	-10.9897
▁screenwriter	-10.9897
regulation	-10.9897
▁राष्ट्रपति	-10.9897
प्रसार	-10.9897
▁Jackson	-10.9898
▁adventure	-10.9898
▁प्रदर्शन	-10.9898
▁debt	-10.9898
▁wait	-10.9899
▁मिलियन	-10.9899
▁Commission	-10.9899
▁Princeton	-10.99
▁string	-10.99
▁उभर	-10.99
arctic	-10.99
▁entry	-10.99
हिन्दु	-10.9901
▁assess	-10.9902
▁Point	-10.9902
▁remainder	-10.9902
▁प्रयोगात्मक	-10.9904
▁legislative	-10.9905
Until	-10.9905
▁Armed	-10.9905
▁Jack	-10.9912
paint	-10.9928
▁overlap	-10.9928
हिन्द	-10.9931
ocene	-10.9941
shore	-10.9945
▁११	-10.9948
Alien	-10.9999
आगरा	-11
although	-11
विश्व	-11
number	-11.0001
हिन्दू	-11.0004
▁कार्	-11.0057
spor	-11.0078
ांतर	-11.0191
Media	-11.0214
▁Armenia	-11.0273
▁स्वतंत्र	-11.0289
▁गतिविधि	-11.0294
▁उदय	-11.0295
Anthropology	-11.0295
Karabakh	-11.0295
▁Conference	-11.0295
▁Fairbanks	-11.0295
▁Heracles	-11.0295
▁Territory	-11.0295
▁ammonia	-11.0295
▁autonomy	-11.0295
▁biggest	-11.0295
▁biocapacity	-11.0295
▁exclude	-11.0295
▁explicitly	-11.0295
▁explosive	-11.0295
▁funeral	-11.0295
▁inhabited	-11.0295
▁league	-11.0295
▁legacy	-11.0295
▁libertarian	-11.0295
▁pavement	-11.0295
▁practitioner	-11.0295
▁resolution	-11.0295
▁sacrifice	-11.0295
▁separation	-11.0295
▁spectrum	-11.0295
▁synthetic	-11.0295
▁unsuccessful	-11.0295
▁अक्टूबर	-11.0295
▁उत्पत्ति	-11.0295
▁उपमहाद्वीप	-11.0295
▁ताजमहल	-11.0295
▁नियंत्रण	-11.0295
▁पत्थर	-11.0295
▁प्रारम्भ	-11.0295
▁ब्रह्माण्ड	-11.0295
▁मलयालम	-11.0295
▁मुसलमानों	-11.0295
▁यद्यपि	-11.0295
▁वातावरण	-11.0295
▁विमानक्षेत्र	-11.0295
▁व्याकरण	-11.0295
▁संन्यास	-11.0295
▁संरचना	-11.0295
▁हिस्सों	-11.0295
▁Ahmad	-11.0295
▁Kansas	-11.0295
▁boundaries	-11.0295
▁dwarf	-11.0295
▁identical	-11.0295
▁paradox	-11.0295
▁persuade	-11.0295
▁register	-11.0295
▁unsafe	-11.0295
▁जैसा	-11.0295
▁नदियाँ	-11.0295
▁explanation	-11.0295
▁memorial	-11.0295
▁सुधार	-11.0295
▁Marilyn	-11.0295
▁Olympia	-11.0295
▁अनुभव	-11.0295
Politics	-11.0295
▁मुख्यालय	-11.0295
▁1956	-11.0295
▁precise	-11.0295
▁ऋतु	-11.0295
▁लगता	-11.0295
Tradition	-11.0295
▁Eurasia	-11.0295
▁activist	-11.0295
▁concert	-11.0295
▁fraction	-11.0295
▁girl	-11.0295
▁statuette	-11.0295
populated	-11.0295
Donald	-11.0295
▁renamed	-11.0295
▁Sherman	-11.0295
▁1781	-11.0296
Asphalt	-11.0296
▁1943	-11.0296
▁Greco	-11.0296
▁neighbourhood	-11.0296
▁license	-11.0296
▁Blue	-11.0296
▁exceed	-11.0296
▁sheep	-11.0296
▁Centre	-11.0296
▁spear	-11.0296
▁Hermes	-11.0296
Throughout	-11.0296
▁valid	-11.0296
▁predators	-11.0297
▁outcome	-11.0297
▁Franklin	-11.0297
▁northwestern	-11.0297
▁Program	-11.0297
▁evil	-11.0297
ाचार्य	-11.0297
▁Stalin	-11.0298
▁prompt	-11.0298
▁उपकरण	-11.0298
butane	-11.0298
▁trait	-11.0299
▁drug	-11.0299
▁brown	-11.0299
▁dozen	-11.0301
▁मुख्यतः	-11.0301
▁Brown	-11.0305
crown	-11.0306
▁compound	-11.0367
प्रारंभिक	-11.0405
Medical	-11.0405
ऋग्वेद	-11.0415
Aruba	-11.0418
lithium	-11.0418
film	-11.0437
Prior	-11.0527
ल्क	-11.0581
▁expect	-11.0692
preserve	-11.0711
Through	-11.0711
Economy	-11.0712
Mathematical	-11.0712
Psychology	-11.0712
integrated	-11.0712
हृदय	-11.0712
▁Cabinda	-11.0712
▁Caquetío	-11.0712
▁Century	-11.0712
▁Field	-11.0712
▁Seljuk	-11.0712
▁anthropological	-11.0712
▁arranged	-11.0712
▁conversation	-11.0712
▁corruption	-11.0712
▁diacritic	-11.0712
▁exhaust	-11.0712
▁facility	-11.0712
▁fashion	-11.0712
▁guarantee	-11.0712
▁industries	-11.0712
▁mathematician	-11.0712
▁nervous	-11.0712
▁oxidation	-11.0712
▁participation	-11.0712
▁preservation	-11.0712
▁rainfall	-11.0712
▁surpass	-11.0712
▁surrounded	-11.0712
▁universe	-11.0712
▁ununennium	-11.0712
▁अभयारण्य	-11.0712
▁आंदोलन	-11.0712
▁आकर्षित	-11.0712
▁आक्रमण	-11.0712
▁आयोजित	-11.0712
▁दार्शनिक	-11.0712
▁प्रचलित	-11.0712
▁लिखी	-11.0712
▁संस्करण	-11.0712
Wilhelm	-11.0712
▁Liliaceae	-11.0712
▁Tennis	-11.0712
▁assault	-11.0712
▁cluster	-11.0712
▁conference	-11.0712
▁lexical	-11.0712
▁traffic	-11.0712
▁प्राथमिक	-11.0712
▁सैन्य	-11.0712
▁assignment	-11.0712
▁department	-11.0712
सिन्धु	-11.0712
▁harmony	-11.0712
Assistive	-11.0712
▁किनारे	-11.0712
▁रिपोर्ट	-11.0712
▁uniform	-11.0712
princes	-11.0712
▁Creek	-11.0712
▁1957	-11.0712
▁halogen	-11.0712
▁injuries	-11.0712
▁Ohio	-11.0712
▁पूजा	-11.0712
▁Arctic	-11.0712
▁APG	-11.0712
Judaism	-11.0712
▁enemy	-11.0712
▁निम्न	-11.0712
▁truth	-11.0712
▁तीर्थ	-11.0712
▁aqueous	-11.0712
▁injury	-11.0712
▁लाइन	-11.0712
Personal	-11.0713
▁मंत्री	-11.0713
▁preserved	-11.0713
▁terminal	-11.0714
▁Bowl	-11.0714
▁guest	-11.0714
▁tension	-11.0714
▁lawyer	-11.0714
▁dangerous	-11.0714
▁Burn	-11.0715
▁महाराज	-11.0717
▁height	-11.0718
▁वाद्य	-11.0718
ाधिकार	-11.072
▁imitat	-11.0723
▁rational	-11.0728
▁medal	-11.0734
▁singer	-11.0734
▁Indus	-11.0734
▁sperm	-11.0738
Transport	-11.0749
▁पालन	-11.079
▁egg	-11.0801
▁donate	-11.0821
▁strip	-11.0832
piece	-11.085
asphalt	-11.0851
female	-11.0851
केरल	-11.0851
गाँधी	-11.0851
पाकिस्तान	-11.0851
slavery	-11.0851
John	-11.0852
Cinema	-11.087
▁divers	-11.1112
▁logo	-11.1137
▁Champion	-11.1145
▁प्रयाग	-11.1146
▁ग्रामीण	-11.1147
cylinder	-11.1147
यातायात	-11.1147
▁Encyclopedia	-11.1147
▁Liliales	-11.1147
▁Louisiana	-11.1147
▁Orthodox	-11.1147
▁Shrugged	-11.1147
▁Switzerland	-11.1147
▁Urgell	-11.1147
▁archaeological	-11.1147
▁circuit	-11.1147
▁decreasing	-11.1147
▁doctrine	-11.1147
▁dramatically	-11.1147
▁enormous	-11.1147
▁equivalence	-11.1147
▁grammatical	-11.1147
▁intelligence	-11.1147
▁maternal	-11.1147
▁migrated	-11.1147
▁navigation	-11.1147
▁nucleus	-11.1147
▁perspective	-11.1147
▁pregnant	-11.1147
▁recognise	-11.1147
▁reptiles	-11.1147
▁serving	-11.1147
▁situated	-11.1147
▁suicide	-11.1147
▁surgery	-11.1147
▁trimester	-11.1147
▁अत्यन्त	-11.1147
▁अहिंसा	-11.1147
▁डिग्री	-11.1147
▁डॉ॰	-11.1147
▁मिट्टी	-11.1147
▁लोकसभा	-11.1147
▁सरस्वती	-11.1147
▁सामग्री	-11.1147
▁हिंदुओं	-11.1147
▁McClellan	-11.1147
▁Railway	-11.1147
▁Samuel	-11.1147
▁Window	-11.1147
▁bronze	-11.1147
▁household	-11.1147
▁liberal	-11.1147
▁prairie	-11.1147
▁हवाई	-11.1147
▁Iraq	-11.1147
▁minimal	-11.1147
▁honour	-11.1147
▁preparation	-11.1147
▁rigid	-11.1147
▁सिर्फ	-11.1147
▁Daniel	-11.1147
▁driving	-11.1147
▁insects	-11.1147
▁optimal	-11.1147
▁Summer	-11.1147
▁मानचित्र	-11.1147
▁pupil	-11.1147
▁disaster	-11.1147
▁जैव	-11.1147
▁gestation	-11.1147
▁Ireland	-11.1147
▁answer	-11.1147
▁stopped	-11.1147
पोर्ट	-11.1147
▁doubt	-11.1147
▁Munda	-11.1147
▁mosque	-11.1147
▁false	-11.1147
▁feedback	-11.1148
▁यज्ञ	-11.1148
http	-11.1148
▁advise	-11.1148
शंकर	-11.1148
▁circum	-11.1148
▁framework	-11.1148
▁laboratory	-11.1148
Writing	-11.1148
▁कोशिश	-11.1149
▁ultra	-11.1149
▁clean	-11.115
▁adhere	-11.115
▁समिति	-11.115
▁coined	-11.1151
▁राजभाषा	-11.1151
▁सत्ता	-11.1151
Anatol	-11.1154
▁रोग	-11.1181
▁hexa	-11.1183
▁scientist	-11.1255
▁Achille	-11.1258
▁sale	-11.1265
गुजरात	-11.1301
ब्रह्म	-11.1304
शक्ति	-11.1305
Afghan	-11.1305
Semitic	-11.1305
Tarkovsky	-11.1306
control	-11.1308
science	-11.1309
मूर्ति	-11.1375
Direct	-11.1402
▁Bern	-11.1544
▁demonstrate	-11.156
▁शैल	-11.1584
▁neighbor	-11.1592
ञ	-11.16
▁बल्ले	-11.1601
▁Survey	-11.1601
▁occupy	-11.1601
▁qualify	-11.1601
▁अस्पताल	-11.1601
▁रियासत	-11.1601
▁संसाधन	-11.1601
Children	-11.1601
competitive	-11.1601
▁Alchemy	-11.1601
▁Aristotelian	-11.1601
▁Bonaire	-11.1601
▁Caspian	-11.1601
▁Memorial	-11.1601
▁Odysseus	-11.1601
▁Patrick	-11.1601
▁Plutarch	-11.1601
▁Richmond	-11.1601
▁animators	-11.1601
▁beautiful	-11.1601
▁commerce	-11.1601
▁computation	-11.1601
▁consecutive	-11.1601
▁destination	-11.1601
▁dioxide	-11.1601
▁exploration	-11.1601
▁hazard	-11.1601
▁hectares	-11.1601
▁liberty	-11.1601
▁mammals	-11.1601
▁narrative	-11.1601
▁nitrogen	-11.1601
▁renowned	-11.1601
▁temporary	-11.1601
▁vulnerable	-11.1601
▁website	-11.1601
▁अशोक	-11.1601
▁कश्मीर	-11.1601
▁पुरस्कार	-11.1601
▁फ्रांस	-11.1601
▁मकबरा	-11.1601
▁व्यावसायिक	-11.1601
▁शब्दावली	-11.1601
▁सम्मेलन	-11.1601
▁सार्वजनिक	-11.1601
carboxyl	-11.1601
▁appellant	-11.1601
▁exposure	-11.1601
▁harvest	-11.1601
▁indicating	-11.1601
▁suspect	-11.1601
▁tariff	-11.1601
▁tropical	-11.1601
▁Bronze	-11.1601
▁Bureau	-11.1601
▁alleged	-11.1601
▁requiring	-11.1601
▁चुके	-11.1601
▁bishop	-11.1601
▁knew	-11.1601
▁proclaimed	-11.1601
▁radius	-11.1601
▁shadow	-11.1601
▁अंतिम	-11.1601
▁कार्यालय	-11.1601
▁गणराज्य	-11.1601
▁प्रसाद	-11.1601
▁unclear	-11.1601
▁cartoon	-11.1601
▁illegal	-11.1601
▁bulk	-11.1601
▁varied	-11.1601
Citations	-11.1601
▁(2018	-11.1601
▁निर्देश	-11.1601
▁1958	-11.1601
▁radar	-11.1602
▁chronic	-11.1602
://	-11.1602
Medieval	-11.1602
▁Queen	-11.1602
▁massacre	-11.1602
▁ratified	-11.1602
▁Aldous	-11.1602
▁Lunar	-11.1602
▁readily	-11.1602
Visual	-11.1602
▁decay	-11.1602
▁1938	-11.1602
▁शरीर	-11.1602
▁FAA	-11.1602
▁70%	-11.1602
▁denied	-11.1602
Lithium	-11.1602
▁Lanka	-11.1602
▁roof	-11.1602
▁illness	-11.1602
Temple	-11.1602
croscopic	-11.1603
▁गतिविधियों	-11.1603
▁taste	-11.1603
▁jaw	-11.1603
▁alpha	-11.1603
▁महाकाव्य	-11.1603
▁steel	-11.1603
▁anything	-11.1603
▁counterpart	-11.1603
▁व्यक्तिगत	-11.1604
▁battlefield	-11.1604
osperm	-11.1605
▁आजाद	-11.1605
▁Wolf	-11.1607
pseudo	-11.1622
▁informal	-11.1625
ाइक	-11.1762
▁arise	-11.1771
structure	-11.1778
वैज्ञानिक	-11.1781
सिंह	-11.1782
गंगा	-11.1782
Johnston	-11.1782
carbon	-11.1782
especially	-11.1782
जैसे	-11.1782
Nobel	-11.1783
Indian	-11.1785
course	-11.1786
generated	-11.1808
ाक्षर	-11.1874
▁introduce	-11.2037
rgon	-11.2047
▁सिंध	-11.2072
▁ऋग्	-11.2077
Addition	-11.2077
Conflict	-11.2078
administered	-11.2078
cosmonaut	-11.2078
अंग्रेज़ी	-11.2078
एसटीपीआई	-11.2078
▁Assyrian	-11.2078
▁Christopher	-11.2078
▁Ontario	-11.2078
▁Paperback	-11.2078
▁Pashtun	-11.2078
▁Ptolemy	-11.2078
▁Wozniak	-11.2078
▁algebra	-11.2078
▁approval	-11.2078
▁arrival	-11.2078
▁casualties	-11.2078
▁cavalry	-11.2078
▁conclusion	-11.2078
▁contributing	-11.2078
▁coordinate	-11.2078
▁currency	-11.2078
▁demonstration	-11.2078
▁execution	-11.2078
▁frequency	-11.2078
▁hybrid	-11.2078
▁mainstream	-11.2078
▁mechanism	-11.2078
▁metamorphosis	-11.2078
▁numerical	-11.2078
▁nutrient	-11.2078
▁predecessor	-11.2078
▁qualities	-11.2078
▁restaurant	-11.2078
▁rhythm	-11.2078
▁simultaneously	-11.2078
▁surviving	-11.2078
▁trouble	-11.2078
▁vacuum	-11.2078
▁अत्यंत	-11.2078
▁आलोचना	-11.2078
▁आश्रम	-11.2078
▁उत्कृष्ट	-11.2078
▁कम्प्यूटर	-11.2078
▁तत्कालीन	-11.2078
▁तत्त्व	-11.2078
▁नियंत्रित	-11.2078
▁पौराणिक	-11.2078
▁बावजूद	-11.2078
▁मुख्यमंत्री	-11.2078
▁मॉडल	-11.2078
▁संग्रहालय	-11.2078
▁समस्याओं	-11.2078
▁सृष्टि	-11.2078
▁हासिल	-11.2078
▁Jersey	-11.2078
▁condemn	-11.2078
▁congress	-11.2078
▁eliminate	-11.2078
▁victim	-11.2078
▁गांव	-11.2078
▁छोटा	-11.2078
▁बिलियन	-11.2078
▁Network	-11.2078
▁Taylor	-11.2078
▁Tirana	-11.2078
▁उसमें	-11.2078
▁परस्पर	-11.2078
▁Deutsch	-11.2078
▁terror	-11.2078
▁जिलों	-11.2078
▁मामले	-11.2078
वर्ती	-11.2078
▁fluoride	-11.2078
▁thrust	-11.2078
▁सम्पूर्ण	-11.2078
▁Hudson	-11.2078
▁adherents	-11.2078
▁burial	-11.2078
▁ecological	-11.2078
▁eleven	-11.2078
▁wrong	-11.2078
▁यात्रा	-11.2078
बिन्दु	-11.2078
▁अवस्था	-11.2078
भोपाल	-11.2078
▁applies	-11.2078
▁initiative	-11.2078
▁excess	-11.2078
▁duties	-11.2078
▁1981	-11.2078
▁choose	-11.2078
▁theatrical	-11.2078
▁resort	-11.2078
Swiss	-11.2078
▁निम्नलिखित	-11.2078
▁Crown	-11.2078
▁agency	-11.2078
▁Young	-11.2078
▁(1964)	-11.2078
▁vocal	-11.2078
▁basin	-11.2078
▁Slave	-11.2078
▁खुद	-11.2078
▁प्रतीक	-11.2078
▁Design	-11.2078
▁dental	-11.2079
▁wooden	-11.2079
▁invited	-11.2079
▁pump	-11.2079
stroke	-11.2079
▁Sudan	-11.208
▁aware	-11.208
▁blend	-11.2081
▁seized	-11.2081
▁automate	-11.2082
▁प्रेम	-11.2085
वचन	-11.2089
▁pond	-11.2089
्ट्री	-11.2131
Large	-11.214
▁flora	-11.2149
bearing	-11.2216
▁विधा	-11.2224
1980	-11.2228
▁breath	-11.2252
दर्शन	-11.2277
छत्तीसगढ़	-11.2281
white	-11.2282
Japanese	-11.2282
Western	-11.2282
Soviet	-11.2282
built	-11.2282
However	-11.2283
▁मूर्त	-11.232
Benz	-11.2409
oreover	-11.2512
usually	-11.2529
▁remove	-11.2536
▁suppl	-11.2548
▁द्वार	-11.2566
नुसार	-11.2571
Academic	-11.2578
Hyperborea	-11.2578
आध्यात्मिक	-11.2578
▁Anthony	-11.2578
▁Bergman	-11.2578
▁Constantinople	-11.2578
▁Huntsville	-11.2578
▁Stephen	-11.2578
▁altitude	-11.2578
▁celebration	-11.2578
▁compiled	-11.2578
▁comprising	-11.2578
▁concrete	-11.2578
▁confusion	-11.2578
▁constituent	-11.2578
▁controversy	-11.2578
▁cooperation	-11.2578
▁efficiency	-11.2578
▁facilitate	-11.2578
▁garrison	-11.2578
▁geometry	-11.2578
▁horizontal	-11.2578
▁illustration	-11.2578
▁necessit	-11.2578
▁neutron	-11.2578
▁propaganda	-11.2578
▁quantity	-11.2578
▁relevant	-11.2578
▁valuable	-11.2578
▁अत्यधिक	-11.2578
▁औपचारिक	-11.2578
▁जंक्शन	-11.2578
▁ज़िले	-11.2578
▁टेक्नोलॉजी	-11.2578
▁नवंबर	-11.2578
▁निर्भर	-11.2578
▁प्रतिनिधित्व	-11.2578
▁समुदाय	-11.2578
▁सर्वोच्च	-11.2578
▁सामूहिक	-11.2578
Adventure	-11.2578
elegant	-11.2578
▁Vegas	-11.2578
▁chamber	-11.2578
▁complain	-11.2578
▁entrance	-11.2578
▁struck	-11.2578
▁surgical	-11.2578
▁आगमन	-11.2578
▁कल्पना	-11.2578
▁प्रबंधन	-11.2578
▁Jordan	-11.2578
▁alkyl	-11.2578
▁installed	-11.2578
▁patient	-11.2578
▁धातु	-11.2578
▁displaced	-11.2578
▁facial	-11.2578
▁Emirate	-11.2578
▁NSU	-11.2578
▁reconstruction	-11.2578
▁प्रगति	-11.2578
▁विवरण	-11.2578
▁relief	-11.2578
▁बोर्ड	-11.2578
▁enhance	-11.2578
▁storage	-11.2578
▁Houston	-11.2578
▁revised	-11.2578
▁Polish	-11.2578
▁epithet	-11.2578
▁grammar	-11.2578
▁satire	-11.2578
▁1937	-11.2578
▁द्वि	-11.2578
▁Castle	-11.2578
▁afford	-11.2578
▁overseas	-11.2578
▁पुरानी	-11.2578
▁Strait	-11.2578
▁naming	-11.2578
▁sugar	-11.2578
▁टेस्ट	-11.2578
▁Galatia	-11.2578
conviction	-11.2578
मुद्रा	-11.2578
▁Vesta	-11.2578
▁टाइ	-11.2578
▁warrior	-11.2578
▁emergence	-11.2579
▁capabilities	-11.2579
▁अंदर	-11.2579
▁Front	-11.2579
Sodium	-11.2579
▁ईरान	-11.258
▁Franco	-11.258
▁जंगल	-11.2581
▁suburb	-11.2583
glyph	-11.2588
Amphibians	-11.2589
▁negotiate	-11.2591
▁खुल	-11.2593
▁क्रीज	-11.2598
complete	-11.2808
people	-11.2809
National	-11.281
▁recall	-11.2864
▁Sahara	-11.2904
▁Philosoph	-11.2947
▁incorporate	-11.3056
▁conclude	-11.3062
▁assume	-11.3064
▁emerge	-11.3064
▁frequent	-11.308
▁immediate	-11.308
Experiment	-11.3104
Contemporary	-11.3104
आईसीसी	-11.3104
आयुर्वेद	-11.3104
शुष्क	-11.3104
▁Agamemnon	-11.3104
▁Columbus	-11.3104
▁Cyrillic	-11.3104
▁Durrës	-11.3104
▁Illyrian	-11.3104
▁Laboratory	-11.3104
▁Maltese	-11.3104
▁Mexican	-11.3104
▁Minnesota	-11.3104
▁Snowball	-11.3104
▁Stewart	-11.3104
▁abroad	-11.3104
▁advertising	-11.3104
▁aggressive	-11.3104
▁celestial	-11.3104
▁comprehensive	-11.3104
▁conjugate	-11.3104
▁critique	-11.3104
▁crucial	-11.3104
▁derivation	-11.3104
▁disappear	-11.3104
▁entertainment	-11.3104
▁entitled	-11.3104
▁etymology	-11.3104
▁featuring	-11.3104
▁happiness	-11.3104
▁helicopter	-11.3104
▁inclusion	-11.3104
▁inspiration	-11.3104
▁integral	-11.3104
▁intervention	-11.3104
▁introducing	-11.3104
▁judicial	-11.3104
▁maneuver	-11.3104
▁manipulate	-11.3104
▁measuring	-11.3104
▁membrane	-11.3104
▁obvious	-11.3104
▁phylogenetic	-11.3104
▁recipient	-11.3104
▁renewable	-11.3104
▁responsibility	-11.3104
▁rhetoric	-11.3104
▁scattered	-11.3104
▁strategic	-11.3104
▁technological	-11.3104
▁yellow	-11.3104
▁अपराध	-11.3104
▁इंदिरा	-11.3104
▁इकाइयों	-11.3104
▁ऊंचा	-11.3104
▁खिलाफ	-11.3104
▁धरोहर	-11.3104
▁पुर्तगाल	-11.3104
▁मराठी	-11.3104
▁वनस्पति	-11.3104
▁विधानसभा	-11.3104
▁शिमला	-11.3104
▁शृंखला	-11.3104
▁स्ट्राइकर	-11.3104
▁(2004)	-11.3104
▁Together	-11.3104
▁cultivation	-11.3104
▁gravity	-11.3104
▁reproductive	-11.3104
▁withdrew	-11.3104
▁ठीक	-11.3104
▁तरीके	-11.3104
सिद्धान्त	-11.3104
▁Physics	-11.3104
▁resigned	-11.3104
▁automation	-11.3104
▁wheat	-11.3104
▁बहुमत	-11.3104
▁coincide	-11.3104
▁अगले	-11.3104
▁1763	-11.3104
▁imperial	-11.3104
Legacy	-11.3104
▁fairly	-11.3104
▁नागरिक	-11.3104
▁orchestra	-11.3104
▁सुन्दर	-11.3104
▁Police	-11.3104
▁domain	-11.3104
▁सम्मान	-11.3104
▁convey	-11.3104
▁Ionian	-11.3104
▁Indonesia	-11.3104
▁Polk	-11.3104
▁wavelength	-11.3104
▁racing	-11.3104
▁Formation	-11.3104
▁Light	-11.3104
▁सकल	-11.3104
▁flew	-11.3104
▁inherent	-11.3104
▁गणना	-11.3105
▁महत्त्वपूर्ण	-11.3105
▁integer	-11.3105
▁venture	-11.3105
▁वापस	-11.3105
▁pitch	-11.3105
वाणी	-11.3105
▁tight	-11.3105
▁Kelly	-11.3105
▁cheap	-11.3105
plaque	-11.3105
▁Small	-11.3106
▁neck	-11.3106
▁भोज	-11.3106
▁प्रवृत्ति	-11.3106
▁sake	-11.3106
▁चोट	-11.3107
▁oxide	-11.3108
witch	-11.3108
ाउन	-11.3109
▁Amphi	-11.3111
▁devot	-11.3112
heaven	-11.3113
Given	-11.3121
Theodor	-11.3131
▁fame	-11.3139
▁deposit	-11.3141
solvent	-11.3197
▁Victor	-11.3261
Saharan	-11.3308
वैदिक	-11.3363
पंजाब	-11.3364
Christian	-11.3364
लगभग	-11.3364
natural	-11.3364
मनोविज्ञान	-11.3364
world	-11.3365
▁observe	-11.3585
▁abandon	-11.3605
▁propose	-11.362
▁gradual	-11.3635
▁advent	-11.3656
▁sovereign	-11.3657
Connecticut	-11.3659
Introduction	-11.3659
कौशल	-11.3659
स्वतन्त्रता	-11.3659
▁Anthropological	-11.3659
▁Criminal	-11.3659
▁Kosovo	-11.3659
▁Microsoft	-11.3659
▁Norwegian	-11.3659
▁Representatives	-11.3659
▁Safavid	-11.3659
▁aggregate	-11.3659
▁confidence	-11.3659
▁corporation	-11.3659
▁democratic	-11.3659
▁emergency	-11.3659
▁erected	-11.3659
▁expectancy	-11.3659
▁journey	-11.3659
▁loanwords	-11.3659
▁millennium	-11.3659
▁observing	-11.3659
▁overwhelming	-11.3659
▁phenomenon	-11.3659
▁pregnancies	-11.3659
▁pursuit	-11.3659
▁steadily	-11.3659
▁stimulate	-11.3659
▁tunnel	-11.3659
▁watched	-11.3659
▁अन्तर्राष्ट्रीय	-11.3659
▁अवशेष	-11.3659
▁आमतौर	-11.3659
▁आयोजन	-11.3659
▁डॉलर	-11.3659
▁परमाणु	-11.3659
▁पारंपरिक	-11.3659
▁फरवरी	-11.3659
▁मजबूत	-11.3659
▁मौजूद	-11.3659
▁विख्यात	-11.3659
▁विपरीत	-11.3659
▁सर्वप्रथम	-11.3659
▁स्टेडियम	-11.3659
▁हॉकी	-11.3659
Analysis	-11.3659
Anatomy	-11.3659
Vienna	-11.3659
▁cognate	-11.3659
▁cooperative	-11.3659
▁crystal	-11.3659
▁फिल्म	-11.3659
▁बेहतर	-11.3659
▁वर्णमाला	-11.3659
▁Bulgaria	-11.3659
▁Feature	-11.3659
▁compact	-11.3659
▁dictionary	-11.3659
▁offensive	-11.3659
▁removal	-11.3659
▁reproduction	-11.3659
▁जटिल	-11.3659
▁पुलिस	-11.3659
▁यूनानी	-11.3659
▁वृक्ष	-11.3659
▁boiling	-11.3659
▁catalog	-11.3659
▁covalent	-11.3659
▁summary	-11.3659
▁हत्या	-11.3659
Screen	-11.3659
▁decimal	-11.3659
▁modification	-11.3659
्युपनिषद्	-11.3659
▁Perseus	-11.3659
▁Tunisia	-11.3659
▁raising	-11.3659
▁नेहरु	-11.3659
▁fraud	-11.3659
▁1859	-11.366
▁fluid	-11.366
▁mounted	-11.366
▁corpus	-11.366
▁मदद	-11.366
authoritarian	-11.366
▁heritage	-11.366
▁चक्र	-11.366
▁blind	-11.366
▁||	-11.366
▁Christmas	-11.366
▁Timur	-11.366
▁diesel	-11.366
▁माधव	-11.366
▁beaches	-11.366
▁initiated	-11.366
▁partition	-11.366
▁Operation	-11.366
▁Horch	-11.366
▁Living	-11.366
▁relating	-11.366
▁basal	-11.366
▁actress	-11.366
▁Siberia	-11.366
▁नवाब	-11.3661
Monument	-11.3661
Algae	-11.3663
fluor	-11.3665
Fiction	-11.3665
रहस्य	-11.3667
▁terminate	-11.3668
metry	-11.3707
onsequently	-11.3854
public	-11.3938
हिमाचल	-11.3951
Two	-11.3951
develop	-11.3951
Huxley	-11.3952
Russian	-11.3952
written	-11.3952
▁predat	-11.3971
1991	-11.4049
cyclic	-11.4112
▁suffer	-11.4145
कानूनी	-11.419
▁attribute	-11.4206
▁compare	-11.4207
cognit	-11.4242
▁spirit	-11.4246
▁architect	-11.4247
▁accompany	-11.4248
▁pharyngeal	-11.4248
▁अभिलेख	-11.4248
Metaphysics	-11.4248
excluding	-11.4248
motivated	-11.4248
ठाकुर	-11.4248
▁Captain	-11.4248
▁Corporation	-11.4248
▁Danube	-11.4248
▁Elizabeth	-11.4248
▁Gallery	-11.4248
▁Ingolstadt	-11.4248
▁Lawrence	-11.4248
▁Nathaniel	-11.4248
▁Orchestra	-11.4248
▁Orleans	-11.4248
▁Poseidon	-11.4248
▁Python	-11.4248
▁Skanderbeg	-11.4248
▁Thailand	-11.4248
▁admired	-11.4248
▁aluminium	-11.4248
▁assassinated	-11.4248
▁automobile	-11.4248
▁autonomous	-11.4248
▁coalition	-11.4248
▁commemorate	-11.4248
▁completion	-11.4248
▁composer	-11.4248
▁compromise	-11.4248
▁corporate	-11.4248
▁criteria	-11.4248
▁defensive	-11.4248
▁derivative	-11.4248
▁distillation	-11.4248
▁emperor	-11.4248
▁empirical	-11.4248
▁equilibrium	-11.4248
▁equipped	-11.4248
▁evident	-11.4248
▁hydride	-11.4248
▁improving	-11.4248
▁legitimate	-11.4248
▁persecution	-11.4248
▁prohibit	-11.4248
▁puppet	-11.4248
▁romantic	-11.4248
▁sanctuary	-11.4248
▁tragedy	-11.4248
▁watching	-11.4248
▁अक्षांश	-11.4248
▁अग्रणी	-11.4248
▁अभिव्यक्ति	-11.4248
▁अहमदाबाद	-11.4248
▁निष्कर्ष	-11.4248
▁नींव	-11.4248
▁लंबे	-11.4248
▁व्यवसाय	-11.4248
▁शिलालेख	-11.4248
▁संघर्ष	-11.4248
सनातन	-11.4248
▁feminist	-11.4248
▁impairment	-11.4248
▁nymph	-11.4248
▁petition	-11.4248
▁sediment	-11.4248
▁superoxide	-11.4248
▁ईस्वी	-11.4248
▁उम्मीद	-11.4248
▁पठार	-11.4248
▁प्रवेश	-11.4248
▁Heinemann	-11.4248
▁definite	-11.4248
▁sensory	-11.4248
▁suspend	-11.4248
▁terrain	-11.4248
▁architectural	-11.4248
IVB	-11.4248
▁Justice	-11.4248
▁Movement	-11.4248
▁plague	-11.4248
▁एकमात्र	-11.4248
▁Heinrich	-11.4248
▁probability	-11.4248
▁घिरा	-11.4248
oriented	-11.4248
solving	-11.4248
▁warfare	-11.4248
▁Gordon	-11.4248
▁Number	-11.4248
▁किंतु	-11.4248
▁Baptist	-11.4248
▁sentiment	-11.4248
▁Translation	-11.4248
▁cruise	-11.4248
▁चाहे	-11.4248
▁Corps	-11.4248
▁अन्दर	-11.4248
▁debris	-11.4248
▁morphological	-11.4248
▁ownership	-11.4248
▁1951	-11.4248
▁UTC	-11.4248
▁defence	-11.4248
▁overthrow	-11.4248
▁Morris	-11.4248
▁eagle	-11.4248
affirm	-11.4248
▁decree	-11.4248
▁reconstructed	-11.4248
▁उद्यम	-11.4248
▁प्रसारण	-11.4248
▁Silver	-11.4248
▁किस्म	-11.4248
▁drew	-11.4248
▁Serbia	-11.4248
▁sensation	-11.4248
▁Brave	-11.4248
Population	-11.4248
▁scope	-11.4248
▁reliable	-11.4248
▁silent	-11.4248
▁Club	-11.4248
जबलपुर	-11.4248
परिचय	-11.4248
Popular	-11.4249
▁pirate	-11.4249
Amateur	-11.4249
▁सतह	-11.4249
Ethics	-11.4249
retired	-11.4249
▁Clark	-11.425
▁एयर	-11.425
Linear	-11.4252
clinical	-11.4253
▁आसान	-11.4253
▁worse	-11.4254
Pierre	-11.4256
र्ब	-11.426
ाइड	-11.4262
Zuid	-11.4264
▁Eight	-11.4309
शायर	-11.437
▁regulate	-11.4446
Text	-11.4524
व्यवस्था	-11.4575
Despite	-11.4576
length	-11.4576
Egypt	-11.4576
except	-11.4576
Austroasiatic	-11.4576
Turkish	-11.4576
Atlantic	-11.4577
established	-11.4577
Achilles	-11.4577
शब्द	-11.4577
market	-11.4578
elecommunication	-11.461
लिपि	-11.4623
▁प्रारंभ	-11.4701
▁prepare	-11.4831
▁dominate	-11.4832
▁abort	-11.4863
▁danger	-11.4869
▁दिखा	-11.4871
▁climb	-11.4873
▁deliberate	-11.4873
▁homosexual	-11.4873
▁immortal	-11.4873
ATLAS	-11.4873
LGBT	-11.4873
dimensional	-11.4873
व्युत्पत्ति	-11.4873
संवैधानिक	-11.4873
सितंबर	-11.4873
▁Advanced	-11.4873
▁Aliyev	-11.4873
▁Arietids	-11.4873
▁Cumberland	-11.4873
▁Edinburgh	-11.4873
▁Hephaestion	-11.4873
▁Hopkins	-11.4873
▁Principality	-11.4873
▁Quebec	-11.4873
▁Singapore	-11.4873
▁Zosimos	-11.4873
▁abundance	-11.4873
▁aerodynamic	-11.4873
▁announcement	-11.4873
▁assassination	-11.4873
▁calendar	-11.4873
▁cardinal	-11.4873
▁ceremonies	-11.4873
▁channel	-11.4873
▁coffee	-11.4873
▁combustion	-11.4873
▁commitment	-11.4873
▁communicate	-11.4873
▁competing	-11.4873
▁conservation	-11.4873
▁constraint	-11.4873
▁cricket	-11.4873
▁cuisine	-11.4873
▁declaration	-11.4873
▁democracy	-11.4873
▁determining	-11.4873
▁economies	-11.4873
▁elephant	-11.4873
▁embrace	-11.4873
▁masculine	-11.4873
▁mercury	-11.4873
▁metropolitan	-11.4873
▁motivation	-11.4873
▁opportunities	-11.4873
▁pandemic	-11.4873
▁presidency	-11.4873
▁proximity	-11.4873
▁releasing	-11.4873
▁strategies	-11.4873
▁subsidiary	-11.4873
▁transmutation	-11.4873
▁voluntary	-11.4873
▁अड्डा	-11.4873
▁अधिग्रहण	-11.4873
▁अनुसूचित	-11.4873
▁ऊँची	-11.4873
▁कम्पनी	-11.4873
▁कि॰मी॰	-11.4873
▁जालस्थल	-11.4873
▁जुलाई	-11.4873
▁झारखंड	-11.4873
▁तहसील	-11.4873
▁दुसरे	-11.4873
▁नर्तक	-11.4873
▁निर्णय	-11.4873
▁परिणामस्वरूप	-11.4873
▁पुराणों	-11.4873
▁पेशेवर	-11.4873
▁पैमाने	-11.4873
▁महर्षि	-11.4873
▁मूल्यांकन	-11.4873
▁रेडियो	-11.4873
▁लक्ष्मण	-11.4873
▁वाणिज्य	-11.4873
▁वार्षिक	-11.4873
▁विंध्य	-11.4873
▁शारीरिक	-11.4873
▁सक्रिय	-11.4873
▁साधारण	-11.4873
▁स्थानांतरित	-11.4873
Raymond	-11.4873
▁(1963)	-11.4873
▁(2005)	-11.4873
▁(2009)	-11.4873
▁Barbara	-11.4873
▁Representation	-11.4873
▁ancestry	-11.4873
▁archaic	-11.4873
▁confused	-11.4873
▁exploring	-11.4873
▁fertile	-11.4873
▁impressed	-11.4873
▁interface	-11.4873
▁ordinary	-11.4873
▁populous	-11.4873
▁prevalent	-11.4873
▁लंबी	-11.4873
▁शांति	-11.4873
▁संहिता	-11.4873
Progress	-11.4873
sterreich	-11.4873
▁adjust	-11.4873
▁fabric	-11.4873
▁flourish	-11.4873
▁hidden	-11.4873
▁lawsuit	-11.4873
▁preface	-11.4873
▁supplement	-11.4873
▁बच्चों	-11.4873
▁स्पेस	-11.4873
Building	-11.4873
▁biographer	-11.4873
▁demographic	-11.4873
▁राष्ट्रगान	-11.4873
▁Prussia	-11.4873
▁abjad	-11.4873
▁peroxide	-11.4873
▁revival	-11.4873
▁powder	-11.4873
▁Leonard	-11.4873
▁Nixon	-11.4873
▁फुट	-11.4873
▁प्लेट	-11.4873
▁लगातार	-11.4873
Writers	-11.4873
▁session	-11.4873
▁(2022	-11.4873
▁Franz	-11.4873
▁Sicily	-11.4873
▁tribute	-11.4873
▁worshipped	-11.4873
▁प्रतीत	-11.4873
▁1908	-11.4873
▁Watson	-11.4873
▁preparing	-11.4873
▁conformation	-11.4873
▁1782	-11.4873
▁injection	-11.4873
▁भक्ति	-11.4873
▁Banff	-11.4873
▁secede	-11.4873
▁हिन्दुओं	-11.4873
▁1952	-11.4873
▁शिल्प	-11.4873
▁violation	-11.4873
▁श्रद्धा	-11.4873
श्वेत	-11.4873
▁Pythia	-11.4873
▁spiral	-11.4873
▁crowd	-11.4873
▁Third	-11.4873
श्रुति	-11.4873
Abortion	-11.4873
Critics	-11.4873
▁Scythia	-11.4873
▁गृह	-11.4873
▁Marnie	-11.4873
▁Coptic	-11.4873
Lowry	-11.4873
Support	-11.4874
Notable	-11.4876
Novels	-11.4876
▁पकड़	-11.4876
▁blame	-11.4879
▁DVD	-11.4882
neighborhood	-11.4886
Photo	-11.4894
उत्तम	-11.4902
ज्ज	-11.4932
lecommunications	-11.5143
abortion	-11.5242
condition	-11.5242
containing	-11.5243
यूरोप	-11.5243
Battle	-11.5244
original	-11.5244
Market	-11.5298
▁succeed	-11.5485
▁arrive	-11.5498
▁compute	-11.5509
▁Amphibia	-11.5527
▁Secret	-11.5535
वृत्त	-11.5537
▁worship	-11.5539
Beginning	-11.5539
Indigenous	-11.5539
Influence	-11.5539
spontaneous	-11.5539
इंटरनेट	-11.5539
टिप्पणी	-11.5539
वैश्विक	-11.5539
▁Amaryllidaceae	-11.5539
▁Antilles	-11.5539
▁Aramaic	-11.5539
▁Bangladesh	-11.5539
▁Barcelona	-11.5539
▁Brantford	-11.5539
▁Diodorus	-11.5539
▁Istanbul	-11.5539
▁Jonathan	-11.5539
▁Moroccan	-11.5539
▁Objectivist	-11.5539
▁Punjab	-11.5539
▁Springfield	-11.5539
▁Symphony	-11.5539
▁Telephone	-11.5539
▁Upanishads	-11.5539
▁abugida	-11.5539
▁acceleration	-11.5539
▁atmospheric	-11.5539
▁availability	-11.5539
▁childbirth	-11.5539
▁collaboration	-11.5539
▁colleague	-11.5539
▁collision	-11.5539
▁competitor	-11.5539
▁computing	-11.5539
▁creativity	-11.5539
▁deciduous	-11.5539
▁declining	-11.5539
▁degradation	-11.5539
▁delegation	-11.5539
▁dissociation	-11.5539
▁evacuate	-11.5539
▁examination	-11.5539
▁flexible	-11.5539
▁holiday	-11.5539
▁influx	-11.5539
▁multiplication	-11.5539
▁occult	-11.5539
▁orientation	-11.5539
▁practicing	-11.5539
▁proclamation	-11.5539
▁renewed	-11.5539
▁shopping	-11.5539
▁skeleton	-11.5539
▁skull	-11.5539
▁subordinate	-11.5539
▁superficial	-11.5539
▁temperate	-11.5539
▁temporarily	-11.5539
▁trajectory	-11.5539
▁volatile	-11.5539
▁welfare	-11.5539
▁अर्ध	-11.5539
▁आकर्षण	-11.5539
▁उपन्यास	-11.5539
▁गठबंधन	-11.5539
▁चन्द्रगुप्त	-11.5539
▁तरीकों	-11.5539
▁दिसंबर	-11.5539
▁परीक्षण	-11.5539
▁पृथक	-11.5539
▁भविष्य	-11.5539
▁मनोरंजन	-11.5539
▁मेडिकल	-11.5539
▁लैटिन	-11.5539
▁विद्युत	-11.5539
▁विरासत	-11.5539
▁विस्फोट	-11.5539
▁सल्तनत	-11.5539
▁हथियार	-11.5539
▁२०११	-11.5539
▁(2006)	-11.5539
▁Beautiful	-11.5539
▁Hawaii	-11.5539
▁anatomical	-11.5539
▁colonists	-11.5539
▁inherited	-11.5539
▁nevertheless	-11.5539
▁permitted	-11.5539
▁quarterfinal	-11.5539
▁radii	-11.5539
▁replied	-11.5539
▁semantic	-11.5539
▁stronghold	-11.5539
▁अनुपात	-11.5539
▁तीसरा	-11.5539
▁पर्याप्त	-11.5539
▁रामायण	-11.5539
▁सिकंदर	-11.5539
▁हमेशा	-11.5539
▁हूँ	-11.5539
भूषण	-11.5539
▁Affair	-11.5539
▁Atlanta	-11.5539
▁DKW	-11.5539
▁Troilus	-11.5539
▁additive	-11.5539
▁discretion	-11.5539
▁equator	-11.5539
▁दौड़	-11.5539
▁निभाई	-11.5539
▁sudden	-11.5539
ुद्दीन	-11.5539
▁Liberation	-11.5539
▁Marsyas	-11.5539
▁enrolled	-11.5539
▁happy	-11.5539
▁ignored	-11.5539
▁चुकी	-11.5539
▁albeit	-11.5539
▁आदिवासी	-11.5539
▁दर्शा	-11.5539
▁लक्ष्य	-11.5539
इंदौर	-11.5539
▁Sultan	-11.5539
▁कुशल	-11.5539
▁NFC	-11.5539
▁egoism	-11.5539
▁terminology	-11.5539
▁मगध	-11.5539
▁विवाह	-11.5539
▁1906	-11.5539
▁Ajax	-11.5539
▁throne	-11.5539
▁स्मारक	-11.5539
▁creator	-11.5539
▁ibn	-11.5539
Bavarian	-11.5539
bracket	-11.5539
▁Goethe	-11.5539
onetheless	-11.5539
▁Chiron	-11.5539
Industrial	-11.554
▁stereo	-11.554
implicit	-11.554
Govern	-11.554
▁हिंसा	-11.5541
▁उन्नत	-11.5541
‍	-11.6077
ॉ	-12.9742
